tulisnya<>31063
pemerik<>8342
##enn<>20237
##ampany<>31731
dapatkan<>18461
mengimbangi<>24311
penyunting<>14092
studios<>10303
##ui<>1772
vina<>28592
##laba<>17130
wacana<>16245
pendaratan<>9943
##ungutan<>10358
##berto<>25041
tul<>8942
libya<>10420
hoki<>20573
asw<>27640
jor<>16698
erupsi<>27958
grande<>14863
lap<>2700
##itno<>31236
bu<>2313
kadiri<>30370
liputan<>17715
aristot<>14232
##ument<>19506
subdivisi<>30262
##yum<>14950
ekosistem<>13064
##p<>1029
##four<>24139
uzbekistan<>17078
ו<>207
beautiful<>18341
##aryo<>30907
##idiki<>10323
drama<>3462
##ford<>5551
≥<>484
##kati<>17063
ditulis<>2986
ranc<>20155
##サ<>1326
##ampingan<>14376
grow<>27920
diterjemahkan<>7287
cruz<>17422
pembiayaan<>15900
##olongan<>5380
heli<>9865
##sebut<>1639
##garan<>27774
##net<>5579
##oor<>10455
##lat<>5250
aktual<>18363
thess<>22236
cleveland<>21691
pemadaman<>30523
##orp<>15802
seles<>4340
stef<>12202
##endalikan<>6239
kemudian<>1803
peace<>18688
良<>900
hy<>3993
klas<>26655
circus<>31345
bawahannya<>21670
kepemimpinan<>5689
prol<>21682
##othy<>16299
dili<>16432
タ<>565
angkasa<>5819
##ekor<>6551
kokoh<>16707
##adem<>3104
oseania<>21736
amber<>26953
##iles<>30554
reseptor<>13694
journey<>23811
visi<>8639
##omec<>27639
cairan<>7455
##ampaui<>10794
seth<>23025
kompensasi<>19118
##tuan<>16090
sof<>10955
aljazair<>11924
semif<>10571
fasih<>20913
lipatan<>22387
terbatas<>4849
univ<>2254
padat<>7142
siap<>4277
memprotes<>18580
foreign<>21916
nebukadnezar<>27203
ei<>27767
origin<>28629
##oner<>6311
putrinya<>8740
##nografi<>15113
negarawan<>19021
##pahan<>28281
dc<>8755
238<>23797
paleont<>28735
史<>669
##yek<>3368
obama<>14440
terbesar<>2997
kodim<>19970
kewar<>11446
kesiapan<>27134
fluk<>29467
perek<>6826
berleb<>8770
##osius<>27346
mesoamerika<>30819
jajanan<>25723
expo<>19622
##ips<>10650
soeg<>26033
nov<>2367
lee<>5378
##uban<>9774
virginia<>11076
都<>934
digabung<>13332
penghancuran<>15982
kejiwaan<>28790
diar<>28928
massa<>4955
##atap<>9948
kesadaran<>8698
diperbaiki<>13773
hobi<>15615
glukosa<>16880
navar<>18400
supermarket<>23480
pengeb<>8520
29<>3674
##bi<>3315
nadu<>21999
berinisiatif<>31707
mitos<>9105
_<>38
##30<>5448
##qih<>17844
penik<>27459
berdo<>11598
kerag<>12106
##ð<>1210
ily<>30165
watch<>16511
nuran<>17080
八<>640
sate<>15627
selena<>31390
##akm<>8414
chow<>19562
211<>27054
which<>19947
##ography<>18861
amanah<>21991
440<>24439
embar<>29200
##kin<>5287
ws<>24116
ச<>323
eksplorasi<>15495
##to<>2019
faktor<>4950
rothschild<>25640
kutu<>6814
##yi<>4206
lac<>12612
kolaborator<>27319
eusta<>27878
umay<>13282
モ<>582
institut<>5932
ambon<>10234
lic<>12262
roy<>5235
pengembangannya<>29037
##cher<>7760
##yoshi<>25155
mempercayakan<>28683
eleazar<>30123
а<>151
megal<>16086
kwan<>24069
cakap<>19592
1822<>24998
security<>18550
1750<>28010
pendaki<>24515
dpl<>13080
pompei<>26974
protection<>30510
blas<>31135
##ꦒ<>1482
luar<>2517
##bukannya<>30216
teks<>4009
cur<>4536
arj<>9395
akira<>23471
##elix<>16022
##afar<>29460
jorge<>23808
##udan<>16166
##bane<>24286
taklukan<>29647
karantina<>17915
malayalam<>18676
chern<>23505
pendudukan<>7356
socrates<>30965
228<>25244
calvin<>14930
lazar<>22054
gugatan<>14586
fenom<>7145
##ebus<>9938
inj<>4871
##buhan<>2255
brimob<>27381
dk<>12897
biof<>31863
##imak<>24545
pattim<>27857
becak<>23773
montgomer<>26811
##duksi<>2364
domba<>9814
popularitas<>9836
organik<>7426
nipah<>29667
##aib<>8336
##had<>14021
##fin<>17262
maz<>8206
##ushan<>27172
berkhianat<>31578
##usuk<>13341
ambil<>12073
##ikum<>19434
pemberantasan<>19065
tertinggal<>15097
™<>476
melebihi<>8011
lav<>14663
konsorsium<>20097
margaret<>12740
##ue<>2862
coca<>23985
##uskan<>4154
##got<>24049
kontraksi<>27392
##alap<>5727
##icu<>6848
penyis<>15804
nuk<>5054
ves<>18077
א<>202
##warman<>21463
akarnya<>28870
blade<>29362
ass<>4810
temple<>19841
dilaporkan<>6569
gelap<>6486
tallo<>30073
riza<>27560
##gap<>2169
prek<>17432
chevrolet<>23490
terd<>1832
##esel<>9672
fug<>25943
##hn<>19730
entah<>15154
##euh<>21395
nero<>23016
##alisasikan<>13025
##anyak<>1791
baghdad<>14882
##endaharaan<>25437
perokok<>30217
##pen<>5972
audi<>7259
thorell<>25000
ark<>9600
maharashtra<>24188
kisah<>3878
rizky<>25940
##ews<>15437
##allo<>27426
asperg<>18700
magdalena<>20474
##inda<>6332
53<>6825
indra<>8864
##ebaskan<>6184
daw<>9662
##ulyo<>14391
setim<>20410
lavigne<>28847
price<>22007
uf<>29171
webster<>31623
buruh<>5639
kehidup<>3113
tawang<>22192
furni<>22952
dup<>15895
mandi<>9829
##itium<>14827
bei<>15940
nafas<>25057
thail<>5392
arrow<>26775
cine<>29284
balistik<>21546
kan<>2825
atletico<>19260
let<>4153
malcolm<>22044
248<>28054
expl<>14069
square<>12093
##bs<>5550
magazine<>14124
mewar<>10154
tawon<>17299
pemikiran<>6567
menghidup<>28132
gratis<>8501
julie<>20653
doh<>23876
##astian<>9505
ba<>2003
berakhirnya<>10459
komposit<>22605
fair<>9795
magnus<>20299
ekonominya<>20805
sud<>4091
hell<>10685
lukis<>13132
terpusat<>15782
marin<>8339
engine<>9805
mobil<>3137
vice<>26545
##ugerahkan<>14491
##esi<>1616
jenner<>31276
vii<>5741
▪<>486
kesalahan<>7001
в<>153
curtis<>20036
startup<>30371
malays<>3658
terdalam<>23889
taran<>31295
keyakinannya<>30872
logan<>19640
hidupnya<>5522
indochina<>25762
pulitzer<>23351
eusebius<>19381
interc<>26436
kush<>20945
mewarisi<>12183
gha<>14871
turbin<>14574
##encana<>3151
jon<>7511
colin<>20581
ped<>3062
lingkup<>10933
jabatannya<>8145
laras<>11260
bermigrasi<>13765
memaparkan<>22427
mahk<>4566
ג<>204
penakluk<>24590
gai<>22337
##ukar<>14298
cap<>4879
avant<>31482
mengek<>31533
lud<>9260
tidore<>22972
≡<>482
##sal<>15436
centa<>28108
black<>5566
get<>9163
att<>29246
ginj<>11593
##emont<>27455
arung<>21525
david<>5031
rms<>31033
poppy<>27184
terendam<>29072
beretnis<>28862
##trech<>15159
saling<>4764
datar<>8924
agamanya<>23139
mencintainya<>28450
bermuara<>16103
##acon<>27083
identif<>31982
##ree<>11163
penyelesaian<>10891
najib<>31100
##cy<>16728
##orium<>5370
motto<>18857
baw<>2184
pepaya<>23839
komuter<>17234
natuna<>28147
tuli<>26769
advokat<>18851
##emp<>1954
christoph<>11356
tiroid<>28726
parkir<>10199
##emparkan<>22184
extra<>22014
pittsburgh<>23905
sena<>26672
schumi<>15628
abbey<>23448
hyderabad<>29057
nabila<>30545
shah<>7367
##tier<>16493
##opati<>17792
军<>646
##uduk<>2074
sebabnya<>18592
legi<>12071
pegunungan<>4519
albat<>25479
##iptanya<>19197
##ambar<>8720
lapisan<>5619
dock<>27833
cendekiawan<>11358
136<>12840
##karbon<>19459
diakses<>10493
lynn<>28423
pamong<>28528
sheikh<>17770
ktt<>22684
aik<>28326
ternyata<>4769
##adin<>11992
senapan<>6855
konstant<>6887
instansi<>13242
fatih<>29801
w<>62
##jauh<>22320
ditukar<>23321
gn<>10873
gabon<>26450
has<>6298
sesat<>17920
ginjal<>11878
batuk<>18973
##usi<>2269
wehrmacht<>25339
limbah<>11658
scara<>6090
##tor<>1943
brilian<>31321
albany<>31357
cuka<>25708
keemasan<>14389
##toran<>6375
samudera<>9198
kijang<>21786
wakilnya<>18301
muhamad<>29773
komodor<>28585
les<>6768
##bai<>5613
lucy<>18366
##itung<>4709
##elet<>19733
kegelapan<>15244
prasej<>15487
deng<>13630
bilah<>18096
pesanggrahan<>28712
republika<>27820
salticidae<>7067
refl<>29369
lima<>2948
perekam<>24957
nazi<>6646
fal<>7308
##esalan<>21313
##jad<>9640
aktingnya<>16148
memberinya<>10415
xviii<>31639
##asy<>27724
dipinjam<>26607
deep<>13898
##og<>1785
sekitar<>2044
##asarkan<>2365
jerusalem<>28459
shad<>16597
inkigayo<>25911
mengajar<>5484
verde<>27113
british<>7888
dilengkapi<>5408
focus<>26766
##illi<>22478
##more<>16302
fx<>27410
##ective<>21487
##sch<>4557
kernel<>20949
spotify<>29230
january<>29578
##alais<>30844
##hai<>8055
roboh<>31005
awam<>13040
tambak<>15246
mestinya<>31320
pint<>9588
##berry<>11588
arc<>9953
simpanan<>23227
telaga<>16396
sibuk<>12229
##rave<>28287
dys<>20115
resort<>16453
hidrof<>28307
digemari<>19891
deter<>18991
grim<>19607
pemberdayaan<>15870
ikip<>16386
malu<>14230
bun<>2946
keraj<>2353
uskup<>4159
##ampurkan<>21951
blind<>25166
fresh<>28096
deb<>9758
bulgaria<>8846
pt<>3521
situs<>3412
##izen<>29825
ukir<>24553
##nis<>2816
beer<>31472
##esset<>24786
augsburg<>26533
daya<>3434
karbonat<>17938
yudea<>17980
dipugar<>30912
penelitiannya<>15764
sianida<>26629
robot<>9039
mewujudkan<>9872
penyakitnya<>29590
##tz<>11343
ditanami<>20720
pula<>2135
##entian<>10863
##osom<>11201
dun<>9701
ajax<>19415
hyang<>16732
rindu<>20679
irwan<>24321
##opuler<>10089
han<>4110
cabang<>4173
plasma<>14303
##oleh<>2704
persawahan<>13733
##ess<>3110
yeh<>7506
perkan<>14523
##upang<>26508
berjaga<>30090
##ক<>1093
##panjang<>7925
hak<>2780
kekhawat<>13603
dem<>2179
bangkrut<>19152
cukai<>16957
andre<>9238
##endor<>21315
energy<>16997
perik<>14682
1873<>16013
##ا<>1036
polic<>22240
pemkab<>26866
muse<>22714
zoe<>28650
##ulai<>1872
##eu<>9813
diwak<>10200
piet<>17029
olga<>20505
singkatnya<>21421
##alidae<>31449
istri<>4011
overd<>27873
uchiha<>28640
##ض<>1071
beyond<>27715
tayangan<>13271
terkejut<>11966
perguruan<>4778
melanjutkan<>4208
seseorang<>4089
bolak<>21041
crystal<>18627
denyut<>28831
kegunaan<>13617
australian<>15325
bertenaga<>14592
##gens<>27540
bahawa<>31185
kacamata<>18858
megap<>22241
teratur<>10720
kurma<>27294
sind<>6695
plot<>14022
matius<>10416
botani<>15577
di<>1495
terowongan<>10139
##uli<>2360
ortodoks<>6732
browser<>21755
##wayatkan<>17894
memon<>23884
birming<>17976
penciptaan<>10488
respon<>9191
naras<>19928
konon<>7608
nos<>16119
##zal<>9534
melantik<>21117
##da<>3691
intensif<>14924
pemberani<>23980
##oderma<>31118
berund<>20080
terlahir<>11458
bertemu<>3854
1968<>6380
pergaulan<>21022
setidaknya<>6356
##zynski<>21734
ricardo<>24962
indro<>26606
##ifi<>17684
ᄃ<>393
tud<>6930
penelitian<>3592
##amida<>11534
##m<>1017
tuntutan<>8705
ballad<>28136
##tong<>24661
##ko<>4898
oks<>6999
tiup<>26693
diferensiasi<>29431
tinggi<>2230
dorcadion<>18449
mochtar<>19221
pyong<>23450
levant<>27967
hoy<>31169
paguy<>20545
canggih<>12845
menger<>10133
perizinan<>29281
玉<>854
##omori<>28757
penuaan<>30809
loch<>30119
ן<>217
baginya<>12340
penegakan<>18772
ea<>22830
##istri<>24609
ru<>2732
rail<>11572
dichotomius<>28324
victoria<>8476
##emia<>6767
tp<>17874
##sed<>3279
bonn<>23391
kons<>2190
##inos<>22371
##arut<>9404
geoffrey<>25059
bermotif<>29758
zakat<>19031
demokrasi<>6784
dihidupkan<>21098
primetime<>26214
cathar<>25586
simbolon<>29889
turis<>15496
dub<>12095
1895<>12518
##onal<>1768
##ala<>1799
basuki<>15377
simulasi<>17803
samoa<>20415
mayang<>26795
estate<>20093
##udut<>30472
syariah<>12344
##80<>6942
sengsara<>29424
berdampingan<>16125
bont<>18018
lit<>9899
mhz<>17870
beraktivitas<>26574
##ilhami<>15966
plat<>3963
##oyan<>14368
1890<>11997
sesama<>8054
##colo<>28698
masak<>12521
transpor<>4973
bergen<>10705
luther<>12507
##ensif<>11342
##gigit<>19999
beranggotakan<>8905
perbuatannya<>24431
seribu<>11135
tat<>7929
kehormatan<>7028
##matan<>22564
##cuit<>24458
ernst<>16292
bening<>19511
penerapan<>10425
shirley<>29895
metodis<>31284
##sem<>12999
kuta<>15439
buangan<>26960
lun<>4698
##itmen<>9940
sen<>1861
menginvasi<>18001
##etapkan<>3901
grobogan<>21426
=<>31
rac<>7202
ferdin<>13261
historical<>31273
laud<>29636
penyimpanan<>8725
dibersihkan<>21014
radius<>18978
##andingi<>23307
karboks<>25211
tamil<>8866
boboib<>31841
krusty<>30263
kebersihan<>18523
##tas<>2872
resmi<>2771
##idian<>13473
512<>27167
ไ<>372
mengembang<>19195
pengep<>9250
oka<>24804
mora<>15991
bend<>2994
crazy<>19647
ditit<>31539
menyalahkan<>17730
2022<>20820
memukul<>11881
##nnya<>19115
tav<>29211
tutur<>19547
uns<>20160
olimp<>25168
##olid<>20877
1865<>18029
##ʿ<>1304
rekomendasi<>13207
##unggal<>4085
marx<>9246
##ely<>12801
##ip<>1689
##edo<>11049
monmouth<>24057
##apus<>7076
parlementer<>17783
cryp<>23312
##ais<>5836
kalimat<>7764
vik<>8254
putu<>24502
lol<>21761
menteng<>21836
river<>13629
nicholas<>14742
ulah<>22562
angka<>4531
##olat<>15372
anab<>29179
junior<>5820
rasial<>21856
inisiasi<>28733
kelahirannya<>11662
##uty<>17664
komuni<>21223
##ensi<>2262
##etakan<>6377
pengelola<>13034
mitsubishi<>16087
sempurna<>7746
魏<>975
##uth<>3603
pengiriman<>9401
parker<>12607
gondang<>24298
pentak<>19435
pelep<>13019
##linger<>31148
dinyalakan<>26662
pidonia<>29260
1925<>9669
usah<>10172
udayana<>29308
inspirasi<>10897
##impah<>11611
##esuaikan<>7979
warung<>11969
##agh<>18235
diakibatkan<>13771
pelataran<>28888
erick<>30860
belanja<>13376
prod<>3762
terg<>1880
menjanjikan<>13497
##t<>1009
##ampungan<>10552
bantalan<>19553
also<>19998
kotapraja<>29695
operator<>8808
pegulat<>15253
hardy<>23300
cew<>24569
##py<>14661
tatanan<>13809
pai<>15846
##timore<>22864
utrech<>19667
##opuleran<>22444
menakjub<>18338
demokratik<>10735
##abalu<>27331
empis<>31363
rif<>14970
pings<>16217
##aparkan<>16954
##د<>1099
tanz<>17327
nurn<>28078
berin<>19032
##wah<>4088
##ial<>6289
singkil<>26457
dijual<>5507
menggambar<>15145
mengapung<>26800
beranak<>30524
giliran<>21361
##ebatkan<>12247
terlaris<>11158
reid<>27086
##sa<>1846
leone<>22573
##etahuan<>4299
disko<>31793
##atarb<>24427
tut<>15930
曹<>799
##iceps<>30223
##umuskan<>12271
susp<>16172
##ulis<>2136
menimbulkan<>5703
diputuskan<>13430
##ineas<>21804
military<>24750
yosefus<>19972
advis<>31903
gapura<>19985
afdeeling<>25852
production<>15743
bendera<>5354
pancaran<>26339
ieee<>31516
##adarkan<>27992
bedanya<>27752
khatulistiwa<>14576
angkatnya<>22886
##ampak<>5131
pemanfaatan<>12791
ketukan<>28066
bermesin<>13792
jih<>16864
##oel<>22960
hann<>13650
日<>788
terbuka<>4267
bambang<>9183
dukun<>14554
dosen<>7341
illinois<>14600
ceramb<>2588
anggur<>8395
blues<>13968
##awali<>21116
##guk<>25130
##ilm<>9826
##arm<>10704
##arn<>11316
secepat<>19705
##tosa<>23247
##impahan<>22402
radja<>29146
dharm<>21591
colors<>25359
atalanta<>31667
publish<>16525
dimus<>20428
kej<>2958
kelainan<>14074
them<>23824
laporan<>4931
kolam<>7804
##dle<>14476
perkereta<>19811
terlaksana<>23149
super<>3830
manga<>6845
meles<>22131
teungku<>24178
guide<>25432
word<>15156
cr<>3874
seniornya<>9461
leks<>23293
##bre<>21218
##ы<>1187
berkarya<>10241
elemen<>6305
baiknya<>18814
muntilan<>30385
##lement<>12718
pelajar<>6322
sunyi<>28098
rosales<>26072
##yat<>2368
electric<>14897
sangha<>24216
ス<>562
##lan<>3749
##em<>1502
rekamannya<>27475
##asa<>1623
diset<>17889
##ahar<>25461
konsonan<>11812
banta<>30677
vas<>10146
transfer<>8845
semip<>9607
istirahat<>13362
surv<>7243
250<>8233
##cock<>27497
mencari<>3759
lea<>14443
yakov<>31338
mendidik<>14084
ketetapan<>19117
hard<>8061
##leg<>20688
win<>4316
naval<>22968
takut<>7701
gunawan<>17485
rri<>20404
benang<>12789
anderson<>14259
##irman<>9360
kat<>2315
lock<>10893
makanan<>2996
algoritme<>13687
realis<>16925
##anjar<>23502
terpadu<>11896
lubang<>6512
sekelilingnya<>21162
baby<>13363
加<>652
愛<>770
marwan<>24637
heri<>29168
terkontrol<>29927
legitimasi<>25263
berkontr<>10236
##ugur<>31796
sari<>6889
kutipan<>12321
method<>17472
pengasuh<>20332
##indo<>9988
policy<>25029
##fried<>19971
nintendo<>12779
##akan<>1543
dave<>16200
##endo<>10470
buprestis<>28200
ons<>30568
##ektorat<>16184
developer<>31572
##ore<>3226
penerbangan<>3636
democrat<>24189
##rikan<>14265
keberlangsungan<>29545
jawabnya<>29939
##fr<>7813
##anus<>10278
##angkar<>13731
##akum<>10091
hori<>11334
pentingnya<>9804
ambarawa<>20370
gun<>2585
hwang<>21259
transliterasi<>21731
bencana<>6685
mengimpor<>24130
sunshine<>28917
##scape<>29537
hollywood<>8831
baron<>11297
pki<>11631
##kha<>15088
##arim<>30471
##ケ<>1285
comics<>17090
sulu<>21828
centre<>11399
oth<>27934
make<>18104
##sias<>14308
##unyikan<>23236
vulkan<>12227
sahara<>15126
mempersembahkan<>14700
turunannya<>28681
titel<>26846
gaulle<>27978
##alla<>28123
fundament<>31912
hash<>15632
suami<>6989
mengkh<>11228
kediamannya<>25024
##ipi<>21170
pengunduran<>13169
purworejo<>15101
##ongan<>3520
tais<>23982
##ک<>1331
mengumumkan<>4279
##ம<>1150
lokasi<>3667
bunc<>30898
berseb<>13714
penahanan<>19047
gaia<>27865
##yana<>8817
mengupayakan<>25864
ronald<>15729
adis<>30025
##xing<>31446
ketidakstabilan<>24963
kalinya<>4696
##zhou<>8258
nickelodeon<>16581
mm<>4808
##atarbelakangi<>24752
##inding<>18083
##ulum<>7131
bidan<>18626
##guncang<>30096
aristokrasi<>31157
##ump<>2371
##orus<>9884
teratai<>20795
##atic<>22597
##ilau<>20503
esai<>14900
##idap<>16315
##antin<>17055
penyebar<>23788
transilvania<>25488
##pina<>31655
##onik<>6400
′<>464
##olasi<>8984
##hav<>23177
jpg<>28428
half<>22136
pln<>17293
leuk<>21245
resi<>13549
kemuliaan<>19517
wembley<>21389
##ظ<>1384
govern<>13780
zee<>18065
isk<>20811
siapapun<>13455
spider<>19003
penggantinya<>13546
shak<>24485
keatas<>25733
renaissance<>24857
##ancurkan<>4672
##ης<>28988
##umin<>28125
##pirasi<>5353
##ansk<>8115
seiring<>5525
kait<>13328
beatrice<>21780
##get<>5207
sesaji<>30243
impian<>16917
dires<>22604
##ativ<>9572
selulosa<>29183
pamf<>23094
##awanan<>4560
insting<>5145
pandang<>8039
memulihkan<>12083
kemitraan<>13985
fast<>19301
kenn<>8532
##na<>1990
sian<>11226
segel<>14240
zab<>22048
##antinya<>5732
pemutar<>21767
axinella<>29730
saito<>30916
army<>15448
lobi<>24022
menyoroti<>15996
##jaya<>12333
pertemuan<>4517
##ewa<>4884
jayan<>29854
##pal<>14982
##jarah<>7949
chrys<>8172
mendasar<>14273
##sesi<>10333
pengelompokan<>23097
senayan<>19900
judulnya<>21724
menumbuhkan<>17579
halmahera<>17094
rilisnya<>23898
kerj<>6079
vaksin<>12637
cent<>15571
water<>9716
3166<>11952
toul<>18125
turn<>18163
anus<>21535
halida<>24483
kosmologi<>25178
perlombaan<>11967
natal<>8382
dolar<>9239
walck<>29888
##asti<>3067
global<>5168
pidie<>26110
##se<>1586
sya<>5532
asin<>14154
tersi<>14339
##otes<>17308
ꦮ<>991
nepenthes<>24125
cinemat<>29720
temurun<>12209
paramount<>19412
##く<>1056
##etuskan<>14243
terus<>3144
cerambyc<>2589
arif<>10143
sey<>20968
##lil<>26908
##uhu<>24632
kecepatannya<>31413
##ingat<>20649
##enggan<>19468
##olf<>6070
angkat<>11133
bibi<>19978
molekuler<>17687
khotbah<>15937
tahun<>1582
lava<>18736
pekerj<>4040
royalti<>29096
kawan<>8704
##adwalkan<>9146
keesokan<>11206
setimnya<>23684
haji<>6963
jatin<>18368
metabolit<>26850
komersial<>5385
penga<>3419
##way<>4694
kuda<>5473
dibongkar<>16570
silesia<>19410
gru<>29700
mendefinisikan<>11546
科<>877
##ᅭ<>1454
##burkan<>10943
##unia<>1916
venezuela<>11787
zara<>19617
fatimah<>20959
##cs<>16378
##olek<>20830
##қ<>1152
nyi<>14546
alias<>9168
anders<>20839
ibtidaiyah<>17661
gw<>14942
##elon<>20708
##wangsa<>27969
penghukum<>28460
paginya<>28961
ens<>22536
gugur<>6817
soal<>9173
detasemen<>17451
willem<>12739
berspek<>22940
squarep<>23072
farmak<>26895
ditinggalkan<>8955
pengamanan<>17878
traf<>18053
ketem<>26733
sembahyang<>27667
lembar<>14509
bocah<>16340
slot<>15843
##ancing<>10961
##truksikan<>26176
organisation<>29477
##ublik<>2539
infinite<>26460
elektroneg<>31893
##empang<>31608
camar<>31759
diver<>21351
kotawaringin<>19541
jenderal<>3458
pika<>30546
dilupakan<>28237
guardian<>17719
kepangeranan<>15339
yuni<>21455
##lies<>20502
integrated<>31824
tauhid<>25186
penemu<>13744
ᨙ<>444
teror<>7551
口<>666
pengiring<>16368
mempercayai<>15379
pf<>21891
##ね<>1453
luigi<>25337
diamond<>18355
ditakdirkan<>31016
mba<>23908
akkad<>23944
##wr<>29493
tolak<>20724
nim<>15330
kalor<>24946
##ekuensinya<>26219
trin<>9861
artefak<>13506
kesalah<>15059
parahyangan<>24098
khas<>4119
agresif<>4888
ringan<>5516
parsial<>19472
65<>6756
relativ<>31061
##alkan<>3880
ส<>364
development<>11146
ᄅ<>395
##bia<>4749
chironom<>9491
##alia<>1839
lanud<>14529
volat<>31003
swift<>13443
orang<>1714
kekun<>17067
curi<>14372
pengaruh<>4120
##ronesia<>31174
banjarmasin<>9706
portsmouth<>31919
rog<>9028
mck<>15737
##itarianisme<>30325
kiranya<>30726
eup<>15452
integrasi<>12513
##asilitasi<>14448
marcus<>17251
keluaran<>10672
##mm<>10739
oranye<>18502
mengimplementasikan<>22790
nasab<>31830
カ<>555
##gun<>1719
penerim<>9216
stro<>12272
konsek<>27292
##assi<>29343
perhatian<>4895
berkembang<>3407
morfologi<>18466
stade<>24314
lereng<>10788
dimengerti<>18776
##tug<>3569
##elompok<>5455
##ovna<>27004
##cao<>20542
leiden<>16762
##ester<>4589
temu<>20215
##ogenesis<>21301
terbu<>26680
gtv<>30996
mengilhami<>25776
memut<>29631
sung<>10648
##anjikan<>10911
percikan<>30790
##oding<>29811
ciptakan<>27832
##er<>1488
mars<>6098
dd<>21920
tej<>31193
dan<>1509
sedan<>16986
pam<>4494
##rediksi<>12299
sav<>10190
dublin<>17007
lincoln<>14371
panzer<>17570
devon<>27520
dirikan<>25323
memerankan<>7587
beatles<>14471
wayan<>26816
kemasyarakatan<>15557
britan<>23562
##aling<>14387
takson<>27956
menyantap<>31187
ffi<>21996
sekian<>15260
gaj<>22124
wibowo<>23624
##fik<>6836
寶<>729
##ulia<>16199
kasul<>31809
cast<>7762
kebocoran<>22841
terpenuhi<>23642
tojo<>30998
selama<>1977
chuck<>26555
quinn<>24741
##endong<>26829
##im<>1550
##optimal<>21377
##sey<>7831
hier<>9272
gogh<>20769
pemberian<>7379
statistik<>9268
sco<>22608
kuntilanak<>29388
dia<>1831
##86<>17528
cat<>3105
polarisasi<>31671
##sel<>6669
tis<>22797
pasta<>19887
ق<>252
1810<>22134
habit<>6438
##oterapi<>26757
kedirgantaraan<>31510
kios<>18317
county<>6954
prot<>6346
semenanjung<>6543
nic<>7560
hew<>3637
dvd<>7431
tinggalkan<>31136
##gunya<>19421
##angkas<>24581
##ayaan<>2767
delapan<>4602
diangkat<>4043
asean<>12510
kesan<>13039
##back<>9232
##ত<>1354
scot<>15467
topologi<>23568
bantal<>31559
ptolemaios<>18032
cocok<>7138
euph<>28425
tulisannya<>12068
pos<>2297
##tujuan<>4645
##kripsi<>5545
aktivitas<>4511
dihapus<>10165
##ajat<>6597
serp<>12592
lonj<>19864
mengedepankan<>23600
cerob<>24379
##ongg<>16923
richie<>30458
nominasi<>5427
premi<>10161
georg<>18819
ais<>13494
##pedo<>11971
mendekat<>18684
jake<>22259
larut<>10499
schleswig<>26762
peril<>26155
内<>645
##gian<>2145
garnis<>16339
wedding<>29605
##chy<>22206
pakaian<>5294
officer<>23234
dijalani<>24532
dilalui<>12133
ki<>4022
##umas<>11542
arjun<>25557
mengeksekusi<>22415
##sus<>4325
menghadapi<>4927
##emonstrasikan<>26346
##imer<>8963
##iance<>14604
falcon<>19771
##れ<>1344
tangerang<>8690
something<>30314
##entif<>15643
##rush<>25475
inggris<>2227
menilai<>10502
monster<>9707
ketaatan<>25258
bercanda<>31344
bm<>10811
ride<>31846
##agn<>8221
城<>692
##hoe<>26040
alessandro<>26897
dipertemukan<>31124
hannover<>29325
pembicara<>14068
menonton<>11032
apollo<>5577
gentianales<>10674
crew<>26929
##jaan<>20285
upon<>25579
saraf<>8548
beat<>8014
meru<>28127
##ธ<>1261
pengamb<>8348
gd<>22258
design<>13057
##rian<>9809
bertab<>22050
diprediksi<>19455
##ᨚ<>1360
laris<>16642
##kat<>8003
mencuat<>25502
tanjungk<>30187
##anaan<>12047
guatem<>13834
kekhanan<>24880
##open<>26830
##urs<>11447
ija<>18047
##ekerj<>3544
##deen<>29092
rudy<>17437
melupakan<>17712
malay<>14648
pemuka<>17821
keputusan<>3803
ю<>180
merendahkan<>23323
metamorf<>24834
putr<>4687
berkualitas<>10696
も<>536
jel<>9864
miconia<>7497
chun<>14112
malang<>5709
baha<>20936
##ajahan<>7640
your<>10339
##ologinya<>22063
##osuke<>30219
##bourg<>19499
dirakit<>24030
pengaw<>5888
##rom<>3373
quraisy<>20096
innoc<>31909
perjamuan<>17069
menggoda<>26882
##gm<>22339
pu<>3884
objektif<>23983
pedagang<>5692
kilogram<>16706
biom<>22132
control<>12001
##cul<>13922
##pic<>22425
##cons<>16883
suh<>4295
pelajaran<>5655
permohonan<>11412
konstituen<>19335
##arawa<>19777
neill<>31127
##orangan<>12901
chir<>8677
disebuah<>26041
taurat<>11651
perburuan<>15150
meref<>16243
##unk<>28652
##inggit<>30781
flat<>23671
99<>7325
tadi<>10677
##uliahan<>17734
##iranya<>26600
1939<>7650
passion<>30770
pangg<>6757
aim<>21370
lamanya<>9488
menyusup<>24616
##olle<>21066
tyson<>30253
##ekarag<>14936
diselesaikan<>8904
paleo<>28405
memperm<>15191
ay<>3973
##emit<>25534
time<>6900
##gunakan<>1773
##ヒ<>1191
kafe<>14186
albania<>10755
##era<>2187
syah<>7906
kebalikan<>22799
diy<>17319
tind<>3792
##eluk<>7782
ship<>17822
balai<>6775
mengutip<>11943
ernest<>14791
2010<>2650
##alih<>24725
benevento<>25562
perlu<>4117
alh<>17503
cukup<>2487
koh<>11465
##icus<>7936
asp<>3895
##aruh<>2679
paparan<>15497
425<>30179
hera<>23272
興<>898
tuk<>6987
peneb<>15932
apol<>5278
##omiya<>31348
sut<>6150
zubair<>27826
275<>23352
marion<>26413
##iger<>15376
terbaca<>31675
bott<>19677
truman<>25617
berbelanja<>25863
dirampas<>28452
mengebor<>2587
murid<>4342
laboratorium<>6818
koma<>17930
pinggiran<>8268
lingkungannya<>19892
hatch<>24712
ƒ<>102
penambang<>23501
710<>29282
##ಾ<>1127
##tiban<>18646
##ʊ<>1377
litu<>11950
ranking<>23398
nath<>30827
maat<>16179
kelimpahan<>26475
##ichy<>22162
nagasaki<>19626
##isipkan<>27609
›<>467
pemul<>9952
content<>27911
##uasan<>18731
##imilasi<>28337
##ᆺ<>1340
electron<>23230
develop<>9675
roosevelt<>16005
##anggaran<>8428
##le<>1567
##tf<>29287
membantai<>26871
menaklukan<>18188
nationale<>29947
scar<>18668
##egi<>2690
loh<>21453
kerabat<>8350
pement<>13240
dic<>2662
##ploitasi<>20314
##ulam<>27778
##reasi<>12605
##ী<>1355
melacak<>16737
##oder<>19060
obyek<>21199
ditinjau<>18903
fath<>20013
##o<>1016
sheila<>21565
##adani<>28175
berj<>2289
क<>273
##emah<>11387
##akup<>3741
satsuma<>30532
##onegoro<>8291
terjaga<>20119
kekec<>21437
mengantarkan<>11815
##bit<>1869
eksk<>8928
donasi<>25084
saltic<>7063
memanjat<>20441
sangihe<>29640
bermusik<>19313
hewan<>3718
beralkohol<>23931
karoling<>27270
##enty<>27641
gundik<>29721
aktris<>4669
lentera<>25787
maryland<>17607
##ә<>1425
kubur<>17443
ayub<>17998
ubah<>17109
भ<>287
kbk<>26670
eukariota<>29051
dinamika<>15048
##zig<>12142
##yang<>5679
terbakar<>9484
vu<>28168
fajar<>13991
werd<>29172
nurnberg<>31706
ర<>338
##ida<>2786
##ground<>11764
desc<>18958
ก<>344
jati<>7245
bendahara<>14718
suci<>3935
partainya<>19307
menghubungkan<>5748
fabales<>9170
##encanakan<>5760
cikarang<>23771
##ray<>10526
pneumonia<>21137
bronx<>30814
##yanto<>11428
vakum<>15572
cessna<>28644
supers<>13045
freiburg<>29277
pembuangan<>11469
mirza<>25899
##grup<>24454
geologis<>24705
##entari<>23859
##bum<>2206
##boro<>17772
budayawan<>24552
tanjung<>4968
tiruan<>22219
##dn<>20684
##opo<>10834
kanon<>10008
kehit<>20859
rece<>22492
calab<>27862
difilmkan<>16331
##wealth<>28256
epos<>27424
##bukukan<>22843
elis<>13998
##rani<>5035
markis<>28578
myx<>24357
cameron<>19027
spesimen<>12979
##cis<>18597
cartoon<>24182
sandiwara<>13737
1860<>13133
р<>166
##apuskan<>11880
##ω<>1156
##angsa<>18442
hw<>22655
##atana<>25918
rel<>3360
mono<>22249
kk<>10461
lebar<>5228
hadirnya<>24788
pusaka<>11768
lolos<>6572
enkripsi<>24054
anno<>28601
dirimu<>28818
##chia<>29192
nothing<>30531
tabib<>31149
臣<>896
babilon<>31910
178<>8422
pertanda<>20619
dibedakan<>9503
penunjukan<>16382
tiga<>2221
cep<>12363
clinton<>17605
06<>7127
berdaya<>16857
pendeknya<>31204
##upkan<>18323
##yl<>3205
petern<>7980
ganja<>24195
bersahabat<>15621
pocong<>25122
komod<>8879
##hoven<>28651
kurt<>17057
ketekunan<>30744
terkubur<>27114
202<>7578
gama<>21215
krakow<>21758
week<>11293
##world<>25119
yuda<>14444
gresik<>13001
quan<>14843
sejalan<>11616
bengali<>15245
dibaca<>8988
antarklub<>23952
##annya<>2004
ditangkap<>5706
joc<>29486
rusli<>31684
⟨<>492
kompreh<>17505
penindasan<>14601
##erj<>5618
chemical<>22499
dikred<>25281
##eros<>16419
##ays<>3275
berkelah<>21010
##yad<>11231
wijen<>31720
##oney<>18262
bergerak<>4449
##biah<>28468
jendral<>12355
gulungan<>13299
diusung<>16959
mengeksploitasi<>27925
marne<>17833
sembunyi<>25676
##oharjo<>15018
kasal<>31961
persoalan<>10607
動<>653
ethiopia<>13079
db<>23581
furnitur<>30967
##aga<>4746
ʔ<>115
pir<>5846
##odernisasi<>31643
hamp<>3096
simpatisan<>28031
np<>24540
遠<>928
visigoth<>25513
heteroseksual<>27827
actors<>25377
ramb<>22876
menyala<>18292
tina<>22769
sabuk<>11758
membagikan<>22976
mendiang<>19738
mendaratkan<>28273
mine<>28824
lidah<>13367
hokkien<>26934
athle<>18964
depati<>28879
au<>8383
aguil<>25808
terbagi<>4738
##angsung<>2387
ezra<>23103
##onisasi<>15055
sebagaimana<>4956
nature<>18951
м<>162
payah<>23243
perceraian<>16949
##eton<>11436
##ogle<>7339
kesemb<>10628
##ondong<>18873
gubuk<>25622
##omin<>28935
konflik<>5042
berkata<>5045
aer<>7169
##ilitas<>8670
mendapati<>15008
putaran<>5725
##spur<>25312
##witz<>23466
meneri<>31450
march<>12295
mengadopsi<>8834
ditimbulkan<>17101
pembuluh<>12771
ج<>235
puspa<>26130
keras<>3331
filsuf<>8695
##rag<>10637
dkpbb<>12450
mesopot<>14258
giuseppe<>22957
syahadat<>28536
fluks<>30788
penghentian<>23148
##oman<>5104
off<>4768
geron<>24943
wifi<>31523
terang<>7631
##odidak<>31458
drain<>21557
##insik<>29936
я<>181
membutuhkan<>5489
##ihatkan<>7598
张<>760
pemotongan<>18571
inter<>2085
la<>1800
##ript<>16634
##iks<>10676
##enjangan<>18818
bangkai<>17944
posisinya<>9427
main<>6626
prabowo<>17948
##ende<>17698
##undan<>17066
boulogne<>29957
450<>14462
jaf<>21428
##ustak<>5637
##idi<>5877
##onax<>19477
prototipe<>14013
singg<>11864
##titu<>2974
30<>2784
naik<>4626
merasakan<>10006
yamada<>30950
kelelahan<>18647
akumulasi<>21825
merayakan<>8744
emil<>19702
##hau<>27905
##م<>1172
##erst<>24878
tetrag<>25018
porter<>27301
tuduhan<>7981
##aria<>2883
pap<>4026
seakan<>17727
gaius<>30743
ribut<>28717
qad<>23210
koreografer<>24103
dunc<>24756
fir<>4720
subjek<>8933
##he<>3926
mts<>14801
militan<>15335
penerjemahan<>19111
qua<>25527
pusdik<>20729
;<>30
melonjak<>31649
##apar<>12627
steam<>27084
我<>773
kedalam<>8508
oklah<>21933
الله<>27874
ketidakadilan<>26137
hyl<>23993
dikh<>12734
prodi<>19778
##ampaikan<>5544
poros<>11608
memprakarsai<>27291
mancanegara<>15012
pedukuhan<>19024
merintis<>15704
romeo<>18718
##ologi<>2240
##य<>1266
kesenangan<>19026
##owi<>10992
suri<>13939
1828<>22650
##ashat<>29523
hampshire<>27096
sabana<>30648
perantara<>15129
sa<>1715
membunuh<>4310
penel<>25100
el<>2318
sekalian<>31603
pencah<>20087
alhasil<>21671
patty<>25290
##س<>1037
simetri<>23645
##ico<>6773
orkes<>11087
rights<>20737
hbs<>28327
mahathir<>25905
emo<>29357
terdahulu<>12568
pk<>9149
menghiasi<>20929
p3<>27493
kejutan<>17273
##fet<>28084
：<>1002
##erigi<>26958
##dow<>4739
##ping<>11429
synd<>26010
dihentikan<>9227
##arik<>3227
frey<>27646
mundur<>5752
##etuai<>13842
sta<>3404
jag<>5593
trib<>20205
##tiva<>22660
wander<>21551
mulyadi<>29519
##mare<>28963
##tabilan<>15302
##aksinya<>20938
##ival<>12958
karangs<>31860
membimbing<>21661
shek<>20951
##angkal<>9079
dipertahankan<>11357
filosofis<>16656
。<>496
tergantung<>6007
gap<>10927
##aminaceae<>14798
schwa<>30933
penyelundupan<>31916
we<>4852
keroncong<>20856
dipilih<>4518
today<>19041
##estic<>31234
menghi<>10748
お<>507
##ofis<>17943
anggaran<>7104
ramah<>11040
##mul<>31299
pran<>13589
gol<>3130
##ardjo<>14289
##itas<>1741
wellsi<>18710
champion<>21177
##abis<>21524
sonny<>22847
nephrotoma<>22067
##asena<>30552
hati<>4006
monom<>26722
nen<>5880
terhindar<>25338
ramalan<>17737
menginap<>19953
bayang<>18476
##イ<>1300
##active<>25990
ema<>29083
terpilihnya<>27304
zion<>24973
##pei<>13868
jiwa<>2769
青<>961
##ahn<>23532
jenewa<>14674
##cript<>24308
bung<>5848
menghentikan<>6937
##rosis<>25782
##zlo<>18930
kalla<>22138
mendaftar<>13094
bundaran<>28063
##ul<>1540
##borne<>29539
amf<>12154
peninggalan<>7405
т<>168
##k<>1028
bever<>20154
melakukan<>2334
pers<>2034
tuh<>31172
80<>4891
##ulus<>3438
chit<>23055
wakil<>3487
dilibatkan<>26957
##ican<>5365
siluman<>18920
publ<>5937
elite<>19100
reality<>21233
disangka<>23825
##upai<>7752
##pm<>13993
##car<>4945
apar<>19004
beliau<>5812
70<>5017
senen<>23114
limf<>25332
mikha<>15277
racun<>11897
##sted<>22037
##formasi<>9454
suzuki<>13018
jasanya<>13495
##sex<>16347
pengejaran<>25261
pengatur<>20049
kurva<>18239
tand<>2478
##orasi<>8561
石<>870
##onsiliasi<>19783
meks<>5897
gilang<>25187
hunger<>27024
tahiti<>31310
kepadanya<>6811
conta<>31262
sax<>16991
bujang<>26009
penganut<>8628
kapitalis<>20735
lomba<>6220
##mah<>9444
##akinya<>25499
nottingham<>25761
what<>12462
berdisk<>25811
##eaux<>17964
##ocorkan<>29354
subspesies<>13861
lok<>2534
charter<>18694
ordinariat<>31988
depo<>25238
##engser<>26679
##ovich<>12641
soh<>16595
disun<>24845
##ampakkan<>19009
panjalu<>24718
##yatta<>20814
superc<>28620
##rodit<>26006
2004<>3160
besok<>31068
ps<>3119
outstanding<>24428
citra<>7798
organisasi<>2906
kontinental<>25517
pecah<>7726
bisu<>14619
tali<>8133
isotop<>13291
##agang<>5193
ukurannya<>13151
203<>23661
gip<>27036
dikonversi<>19164
menguntungkan<>9594
dakwah<>11792
dei<>20430
merah<>3410
##iss<>3983
clay<>21586
等<>883
cintanya<>16502
unix<>22110
gri<>13236
xiang<>17105
sombong<>22229
over<>8043
pool<>25928
kemud<>1797
beca<>31282
1832<>22807
##asure<>28930
beriklim<>15040
dipindah<>15739
jim<>7552
neur<>9654
##ম<>1343
metz<>25366
membanggakan<>26648
perawan<>14090
kemerahan<>16551
julu<>30610
pon<>6195
zainal<>19070
asia<>3065
yap<>18539
brit<>6956
liku<>19399
theory<>21799
kats<>29009
东<>605
pergantian<>10543
galeri<>11847
##lambangan<>19236
stres<>18488
terhind<>21052
ditahun<>21121
memuaskan<>15258
dikhawatirkan<>27879
1990<>3968
##ण<>1273
##ubs<>22101
dialih<>22610
sophron<>20453
##oderm<>27211
art<>3733
1852<>20625
##teng<>22563
##tifikasi<>5126
panji<>11948
tapin<>27872
##adiri<>5684
huruf<>4112
probab<>20345
termahal<>27564
ħ<>97
membawahi<>14796
virus<>6032
here<>21879
senantiasa<>14244
administratif<>5671
pepohonan<>16819
221<>23706
asep<>20964
##eck<>7260
##evich<>15626
semantik<>31862
##ayo<>22690
husein<>19136
cruise<>28319
##ச<>1458
memperhitungkan<>23256
bobot<>13953
##ʔ<>1378
baptis<>10058
antropolog<>23187
##jee<>26674
rot<>5784
musikus<>28353
disengaja<>19535
anggapan<>16421
##asional<>1946
目<>865
kya<>31441
os<>3700
dipl<>5383
terkemuka<>7086
goa<>11438
利<>649
landak<>20702
##chel<>21171
63<>7582
karsin<>26394
76<>7600
##ad<>1503
##undanya<>14966
pelaf<>23376
spec<>8598
dipadukan<>23715
lexus<>23964
purn<>7573
pengambilalihan<>26582
seringk<>17065
utsman<>6112
tamar<>27916
bungkus<>31438
penyeberangan<>21331
kodok<>17255
##imbing<>11398
lembah<>5909
kapit<>10019
##iago<>13971
##akon<>20016
##iningrat<>28990
harum<>19390
##ep<>1641
pemakaian<>9890
##ు<>1107
##xx<>18101
tribune<>27928
nassau<>22806
cand<>9727
cogn<>25092
jonas<>15587
beng<>8171
nir<>7842
isaac<>17922
##jk<>18540
##usinya<>24665
extreme<>29616
dipers<>6819
ura<>19114
bersa<>5063
orangnya<>25392
gagah<>19839
##ismus<>23843
bulunya<>25889
hk<>15603
pelalawan<>31953
##ក<>1470
sebanyak<>3262
platinum<>13973
dyah<>23655
coupe<>24677
##osek<>10134
##velt<>15713
sesekali<>18091
##gender<>18484
lausanne<>30228
stoom<>31865
kim<>3148
disandang<>26027
ayat<>5276
##umpa<>18960
bristol<>21498
##ocephala<>26085
##uaskan<>11949
##likasikan<>16053
diilustrasikan<>21458
lutheran<>14255
##adw<>8144
##ever<>8212
aub<>27884
swalayan<>29251
ـ<>250
##saf<>28236
gelora<>19964
##ubl<>2306
##osus<>11958
dirilisnya<>22887
##opolis<>18768
tl<>15470
##tai<>2024
disi<>4568
167<>10531
speed<>11910
##aldo<>29559
perkebunan<>5730
provinc<>30853
pembongk<>31870
kannada<>19363
disajikan<>7669
##opeza<>19825
trans7<>29016
##italisasi<>23408
terbuat<>5288
diperhitungkan<>18948
rud<>5456
hiroshima<>17120
mengakhiri<>6562
soedar<>26293
##imana<>3486
1846<>19069
##anco<>20266
##aparan<>10928
##ilya<>10924
edwin<>19297
gunakan<>13286
you<>4573
kebayoran<>24110
##ह<>1223
##alism<>26252
pengin<>16350
##bb<>4947
##jagaan<>24413
better<>26071
##erite<>26643
joel<>23765
waligereja<>24854
##elat<>8322
dharmasraya<>31993
,<>15
premier<>11527
melihat<>3198
pendahuluan<>20354
adobe<>23691
promachus<>23711
##udo<>19698
mengatas<>29499
##nut<>29804
321<>31270
potensi<>5011
ocean<>17006
persaingan<>10130
##kohol<>23631
menyarankan<>9356
wood<>8563
boj<>10267
terminologi<>23777
pokok<>7440
##achim<>25548
1816<>22775
tall<>16231
coffee<>25412
meme<>22030
##eblos<>30093
setelahnya<>9954
##erap<>1755
arta<>22272
##ャ<>1237
dorongan<>13647
merefleksikan<>23337
dikonsumsi<>12719
mengontrol<>12725
farah<>22875
1st<>22526
##ilasi<>6493
##tukarkan<>28807
daha<>24262
##amba<>19433
##ula<>1836
##irik<>21115
##alisir<>24673
##sep<>2959
terluar<>18270
ketat<>9046
perbuatan<>9019
mohamm<>9431
kata<>2463
mencaplok<>30815
eff<>11960
##old<>6229
andil<>21770
konseling<>28008
##it<>1531
vektor<>13496
antara<>1885
##tein<>4447
veget<>18640
logistik<>13275
##tress<>17543
mujahidin<>29052
samos<>15242
dipopulerkan<>17221
takluk<>23977
ore<>26552
##yung<>12776
reputasinya<>24688
pembu<>3931
{<>66
subunit<>29824
jamaika<>18284
perundingan<>11679
##pons<>9971
##andang<>3533
1966<>6477
ny<>3382
zen<>11886
ာ<>378
##kas<>17913
castle<>19202
##uate<>28672
karesidenan<>19438
schu<>31201
konsul<>7661
cender<>5899
wiz<>20966
denny<>23738
lut<>13178
winter<>18280
pinjaman<>9077
myung<>30172
rupanya<>13628
chung<>14353
##sol<>17150
poaceae<>22166
pythag<>21452
bakso<>24160
オ<>554
cagli<>25303
keberatan<>16967
kidung<>14612
##ders<>30209
86<>7240
##orok<>26198
sinus<>24674
bersentuhan<>27179
vent<>16548
kromosom<>14881
library<>16416
##gow<>17123
demand<>30776
mong<>5896
ц<>172
##hof<>16893
dipercaya<>6096
##heim<>10538
markus<>10945
boa<>23836
diwujudkan<>18135
adaptif<>31152
##jam<>22930
##ac<>1704
##asil<>1801
wilayahnya<>6769
##angannya<>16369
naf<>9689
bomba<>16628
##nier<>23347
##luor<>24650
##wannya<>27543
1943<>7597
charlotte<>15338
##sions<>27129
cosm<>21808
psikologi<>8777
alwi<>22458
follow<>26118
substansial<>22019
cham<>10707
wasiat<>20117
##akata<>11014
bahtera<>25228
如<>705
##ajal<>20726
stor<>23861
sond<>27370
##stad<>28884
nakajima<>30180
great<>9691
maknanya<>23834
prefektur<>7032
jaran<>24112
##ᨅ<>1456
##side<>27635
##rador<>29250
like<>13881
ideal<>11179
berbuah<>22456
daisy<>31045
い<>504
sum<>2105
##andalkan<>9493
kesuksesan<>7434
##oloph<>19959
term<>4067
hampir<>3223
anhui<>27458
##alisme<>4683
宿<>726
tartar<>28525
##anty<>27686
ditembakkan<>24719
rocky<>22670
demospongiae<>4644
nektar<>5962
##otong<>6021
raffles<>18095
##anding<>3158
##osit<>9434
yogya<>25752
hua<>18988
ী<>319
##enti<>4433
pembuatan<>4565
##u<>1005
stone<>10982
koreografi<>21622
pert<>1643
bap<>4618
##ingin<>6475
clas<>16060
uud<>17260
morf<>12842
##ografis<>6838
memasukkannya<>26969
dikeh<>27552
##ekasan<>26238
千<>660
turner<>16641
menyapu<>23311
##edy<>7002
##yid<>9928
admir<>20198
arie<>24210
berkelana<>19378
##ingkirkan<>11237
nyonya<>15807
##onansi<>19930
sank<>11130
##ayan<>5014
ph<>2890
persembahan<>11968
restor<>13637
radioaktif<>16860
hokage<>30181
logis<>18491
tikus<>10071
##araja<>7778
bron<>16168
iphone<>16837
zoro<>21026
##lud<>26547
##tuh<>3454
bungsunya<>30437
spekt<>22974
79<>8816
hawa<>16620
memorial<>15789
berani<>8981
even<>21203
perp<>3758
##ilan<>2205
joseon<>12759
penyuntingan<>21293
tabungan<>24740
masukan<>14161
menyayangi<>25972
dekade<>6398
stew<>13980
lainya<>18683
representatif<>27165
##antasan<>18588
ɪ<>110
menst<>23498
gamp<>8935
stock<>11120
femin<>14286
istvan<>17241
kko<>25489
terusan<>15298
，<>1001
memasang<>12400
anhid<>25423
sili<>13270
navigator<>29107
eko<>19888
adon<>28226
penjarahan<>25053
ban<>5590
##ekal<>10796
manda<>14463
byrne<>27362
##ner<>3905
##eld<>4571
benua<>6482
melumpuhkan<>20798
mongon<>24613
sentra<>15365
mengungguli<>27032
dibubarkan<>10444
rob<>4905
benj<>12545
##itional<>21990
kiku<>31032
##order<>31054
mons<>8200
bakri<>31552
pope<>29577
larry<>17905
##yam<>8869
mulya<>24886
pink<>14787
petenis<>19785
transjakarta<>20170
泉<>838
usahanya<>11247
melintas<>17837
fairy<>23040
latvia<>14361
diteliti<>16604
blanc<>30491
defense<>19949
seru<>13729
jangk<>30395
marg<>10485
spiritu<>21834
interm<>22818
tersendiri<>8005
cultural<>25127
##elajarinya<>30527
##egara<>5829
inisi<>9369
terakhirnya<>8999
##su<>2071
perunggu<>8500
file<>11184
gli<>29853
disarankan<>15549
〜<>502
nobel<>8709
##mawan<>16800
pekarangan<>17763
otto<>9895
janet<>24675
chak<>17292
bojong<>18537
shire<>28167
kebenaran<>7473
award<>3460
fisiologi<>17839
hotels<>27015
degener<>28480
agak<>6606
dinaikkan<>17536
dibagikan<>20803
##ihannya<>21091
chik<>23504
terra<>27843
aeg<>15041
trinity<>21020
liechtenstein<>22448
##buri<>20047
##umand<>26126
penobatan<>15176
chicago<>8528
##heria<>29094
rehabilitasi<>19042
memotong<>10268
##ifol<>26836
##otos<>22881
##injamkan<>12405
euf<>25981
cla<>8138
bayu<>16638
ꦺ<>995
mercedes<>15744
dinyatakan<>5668
sultan<>3483
##atat<>2640
menghabiskan<>5968
宋<>719
##タ<>1252
##ers<>1932
kor<>2140
##ahter<>8693
sport<>11692
ranj<>14636
keduabelas<>26538
daf<>3179
##otop<>12201
mengharapkan<>15647
menghafal<>30037
##iller<>29989
diinter<>22316
##ica<>3457
rugby<>24828
##ح<>1069
abnormal<>25601
pelengkap<>17238
lv<>24570
##ease<>24905
strateg<>6188
##buy<>24002
gem<>7192
bts<>20965
asistennya<>29783
metam<>20431
melaka<>20082
bradford<>31695
##buruan<>13224
##gram<>12122
miles<>18758
alexius<>29997
pasi<>6636
oet<>26270
maluku<>6693
menjauh<>13618
alur<>9490
##anca<>13047
toleransi<>16073
##ebang<>2558
##igne<>23144
texas<>8892
##uwa<>18375
親<>914
##aren<>25460
diser<>5979
kepanger<>15314
biara<>5948
terbanyak<>6694
kapol<>15007
vega<>26111
##po<>4807
##mu<>2608
kepentingan<>5767
keberhasilan<>8107
situ<>4534
byr<>24460
dieksekusi<>12767
cliona<>27623
##ennis<>13340
forest<>17272
bachchan<>21387
konsentr<>29132
arya<>8873
planet<>2484
kotor<>12092
tiger<>15355
vonis<>30271
perempatfinal<>22850
##ap<>1541
kapal<>2448
kapitalisme<>15808
##ambangkan<>20777
##ams<>26470
mengatur<>5549
ᆷ<>429
wi<>7960
diabaikan<>16316
songs<>17606
##n<>1010
agreg<>10179
konvensional<>10717
##ersia<>30412
renaisans<>16512
##ushu<>15576
kalbar<>30103
want<>17900
aurora<>22613
tertutup<>7856
sankt<>29606
##ansyah<>27290
sejarah<>2573
##antaian<>10621
efektivitas<>20057
pringsewu<>22224
it<>2623
warrior<>25182
##atinya<>15393
humaniora<>26901
djoj<>31501
##atai<>11789
muslim<>3924
diarahkan<>12761
dominion<>28272
parlemen<>4389
armand<>31146
uji<>7623
epidemi<>21238
sulungnya<>19862
aztek<>19625
sulap<>29085
##ilidae<>4143
reak<>18151
meninggal<>2396
amen<>26916
dale<>24020
didasari<>19604
##bun<>10973
nganjuk<>23389
detroit<>15348
##untuhan<>10051
fries<>30656
##ecah<>11899
baba<>18294
##enberger<>14046
terciptanya<>23260
presenter<>12156
maharaja<>11976
二<>612
management<>11537
vasal<>23101
家<>725
berkuliah<>24029
##erson<>8089
1926<>9811
pbb<>6483
parthia<>22917
mini<>5791
maaf<>11722
maan<>30082
##resiasi<>15252
##enberg<>12867
lelang<>19641
plata<>31868
atasnya<>10651
chond<>25354
##esc<>10877
記<>916
selesai<>4436
ketel<>24913
nate<>30544
bertanding<>12230
acaranya<>24007
##isipasi<>4970
1979<>5862
aar<>14548
klasik<>5327
teratas<>9624
etim<>18279
kejelasan<>30784
puji<>24371
fine<>22561
cerodon<>20580
october<>27195
##vez<>22411
brabant<>25644
ras<>3819
geme<>23961
rambutnya<>19201
humor<>15700
##usaha<>3469
##ふ<>1055
##organisme<>17688
hawk<>25821
kehad<>7293
cl<>3153
barong<>17166
kerum<>15849
##erjaan<>12681
mikhail<>17898
pengadilan<>4863
starbucks<>22874
##tu<>1512
james<>4704
hek<>28378
nya<>3018
thari<>28561
##elek<>15644
##را<>31722
disambut<>13000
bw<>16537
kampanye<>5197
mundurnya<>30436
objek<>3978
tangg<>6168
sybra<>14986
khat<>11157
cuk<>2439
penentang<>21028
central<>9688
lin<>4113
syams<>20472
pemugaran<>24866
##ibus<>6992
belok<>23113
barth<>27213
anime<>6940
persa<>8335
##eme<>8564
east<>8678
sharma<>20734
sho<>8618
araf<>20893
potret<>13722
##okok<>13826
##jarakan<>25494
sesudah<>7253
##tain<>4352
telekomunikasi<>9539
dikarang<>20741
penjabat<>23927
##enz<>10458
ekstra<>17294
##abilitas<>14698
##ग<>1382
crom<>28982
##emba<>20385
gelar<>2839
kristal<>8787
didik<>12479
##hattan<>13578
kontribusi<>8754
##ikot<>18247
dham<>24900
bertinggi<>27842
sp<>1611
petugas<>8166
sastro<>26150
masuknya<>10512
hokkaido<>17647
rul<>27075
ى<>259
##abe<>11989
##isus<>26992
vald<>31067
lou<>5314
kepadatan<>7075
##is<>1511
##obak<>22430
dono<>28165
meres<>11934
tabu<>18154
##bakar<>26466
more<>14678
karat<>19074
coulthard<>31986
berumur<>4940
##ata<>1701
platina<>22548
buffalo<>29432
diidentifikasi<>10997
cosmos<>29953
signifikan<>5974
graf<>6432
lay<>2833
sutera<>25251
atta<>17456
##table<>19447
kampanyenya<>27908
span<>31535
##pt<>13005
ak<>1678
idenya<>26517
madh<>24737
zimbab<>18927
menyerah<>7154
pacaran<>29596
##ari<>1518
mendistribusikan<>16689
pengaj<>5670
thr<>17776
lelucon<>18803
muson<>27732
kemiripan<>13152
dideklarasikan<>23965
##pon<>6243
genetik<>9808
brooke<>25439
seterusnya<>10661
malaria<>19820
xiu<>30313
kosong<>8676
evolusioner<>26342
た<>518
##bitkan<>2171
baitu<>26812
skala<>6388
menulis<>3007
brussels<>20531
ubur<>15888
dibintang<>28239
cuc<>5248
lestari<>16468
##ide<>4627
peti<>11906
interactive<>29199
dikalahkan<>6634
penghujung<>18182
##engahan<>3867
pembom<>17904
pr<>1665
urut<>15617
##onc<>8368
##esp<>11222
rumahan<>23145
##ileri<>10052
simeon<>29366
edm<>30492
##ello<>8042
##inian<>29972
##isnis<>14153
##vus<>30151
##ukis<>6443
jennifer<>17181
muncullah<>22947
elevasi<>27061
mengom<>24771
##omis<>15923
memerintah<>5419
hasyim<>16196
##inasikan<>10824
rotan<>17031
visual<>8156
kad<>4437
eis<>14949
head<>10000
ᨈ<>439
sisinya<>19683
guilla<>18855
##rone<>22434
pidatonya<>22699
sims<>31677
pengendapan<>29035
rhododendron<>10307
kecil<>2332
kepa<>9285
##akas<>19325
perjuangan<>5494
inskripsi<>16643
##ين<>24199
krueng<>28842
##chenko<>24099
pse<>7451
maks<>4872
angola<>16038
tre<>12621
华<>661
九<>610
##tarikh<>23842
bi<>1728
##emari<>13903
reorganisasi<>22350
mengembara<>24617
asuh<>27551
office<>7523
mater<>28607
##q<>1054
##rolet<>21516
ly<>11385
##mont<>15382
anies<>31941
##ulap<>30275
adolph<>29497
十<>659
filsafat<>5996
zon<>25913
dilem<>26358
##elawan<>17280
erica<>8761
bernapas<>25545
##gat<>24662
##endang<>10918
swas<>25325
dipaparkan<>28446
transgender<>19185
chand<>14185
##ang<>1491
pela<>4170
##akh<>5724
memprediksi<>17154
unggas<>17619
##etagne<>22882
interface<>25358
nasdem<>25441
align<>13796
karam<>18756
1905<>10670
weimar<>21560
##adha<>30089
pendorong<>19293
pm<>10394
##ajai<>15977
##atani<>17418
fore<>20249
pencapaian<>11347
terorisme<>14026
hasrat<>17954
##ต<>1122
type<>13819
array<>31736
menetapkan<>6165
penyatuan<>12574
pekan<>5599
mirage<>28202
##va<>2216
bayar<>23180
ignatius<>24065
##hanud<>28946
##ona<>3116
##uhan<>2576
##astic<>21540
戰<>775
janin<>19638
##ower<>5517
sirkus<>24566
##amani<>29753
##rog<>15661
##nisa<>30362
≤<>483
仲<>622
sunni<>14959
bulan<>2103
ding<>18618
perg<>3799
##rata<>20193
##ampur<>8044
distrik<>3552
##uba<>24507
mada<>8391
##ulas<>16963
##angkat<>2441
serbu<>21093
siregar<>21854
sif<>3914
pemer<>8359
turin<>25321
alkitabiah<>30145
##aharian<>7398
semar<>21964
##jat<>17820
rossa<>27661
miring<>14679
silang<>11571
##itungan<>7723
jep<>2213
wawasan<>16910
majemuk<>18089
burn<>20217
poe<>30999
city<>4285
##り<>1367
porsi<>20030
dihimpun<>29011
109<>10921
diperkuat<>12303
terpecah<>13777
使<>629
##oe<>7353
##bay<>10156
strike<>22304
cron<>23105
nyoman<>26797
utamanya<>3689
thril<>13850
lamongan<>16223
pinyin<>13894
militernya<>16115
emir<>18412
timnya<>12788
##ring<>14054
##engkap<>12685
pepper<>27394
##holm<>14044
##otrop<>16748
##die<>11273
pih<>29968
asn<>30341
pendapat<>5621
##sman<>5729
scud<>23223
serie<>10723
kemarahan<>13514
berantai<>22374
mendarat<>8045
##enza<>13764
benz<>13543
פ<>221
##yakini<>5658
idol<>10046
aljabar<>20024
mahasiswi<>24658
coelospha<>26117
diemb<>25274
##sonne<>28956
ceres<>30413
legislasi<>25512
etienne<>24396
paral<>9844
##migr<>5609
diperankan<>9206
อ<>366
kesehatan<>3766
kilometer<>5632
bersumpah<>14460
segun<>29627
aji<>11568
##indahkan<>4869
perhotelan<>30016
berkontribusi<>10643
berlainan<>24248
grosir<>29674
kega<>7546
sea<>10883
##lir<>5837
prosp<>18554
mangun<>21643
##enjar<>13400
##rae<>24977
243<>29932
years<>19279
malapetaka<>26089
##cow<>21892
mengirim<>4190
nebu<>2663
##ᅪ<>1423
##bk<>9857
artileri<>10162
penjajahan<>9683
yo<>3954
antu<>16760
ᅵ<>425
##tentu<>3376
##ferensi<>4464
##lal<>20914
diup<>25036
kodansha<>27433
agnes<>15374
trotsky<>30305
##gaan<>2609
##mae<>10418
##aparte<>23454
##osida<>15217
mengekspresikan<>17059
penghambat<>28514
diminta<>8568
lapang<>27651
katherine<>22035
latin<>4317
sequ<>20407
residu<>22754
##uktur<>3346
penghargaan<>2807
boro<>11674
rockef<>27611
##opt<>31737
##ер<>26506
membeku<>25665
keynes<>25007
size<>30233
menargetkan<>21396
bertipe<>26196
mnet<>18074
menump<>13739
mengoperasikan<>7880
##syid<>30735
##ocok<>13667
pertanyaan<>7383
krem<>19099
keharusan<>29274
##enstein<>18446
sufr<>21901
arke<>6892
##aptis<>9903
bachelor<>23071
ansh<>25569
1950<>4908
ketert<>12783
track<>10784
teater<>5225
##ampuran<>17877
eden<>21830
##usim<>30688
শ<>314
disamakan<>16324
surakarta<>7461
ditinggal<>7858
melintasi<>7274
publishing<>21976
pencalonan<>21320
kemen<>3168
pertoko<>22663
nong<>24931
melambangkan<>7375
##hanan<>23441
dedikasi<>27707
uki<>30830
jai<>23043
afrika<>3549
quran<>12315
ᄎ<>403
carlos<>12216
diproyeksikan<>28267
ked<>1819
rsbi<>27155
##メ<>1274
##anc<>1823
homogen<>23004
bermatap<>13026
##ల<>1444
cerambycidae<>2590
##oki<>5441
/<>18
##ellier<>30952
mall<>9326
1886<>13394
usa<>10587
poker<>23676
cond<>11869
skep<>14686
##malukan<>26623
penginj<>16406
berlokasi<>6451
study<>21687
itv<>29517
dilingk<>28401
respons<>15597
integral<>15666
sapu<>28153
max<>6078
fitnah<>25150
kontrov<>6668
rekannya<>9990
吉<>673
poales<>7918
##impiade<>5004
melemp<>11100
berkenan<>29195
kukang<>29427
bagikan<>28939
pencerahan<>15181
dynam<>17197
##isih<>15361
##ago<>6822
pembalasan<>19991
konsepnya<>31814
squid<>18002
log<>3453
mediterania<>12502
##ese<>5649
⋅<>485
merawat<>12471
tepian<>17286
rosa<>19178
dikon<>27783
1815<>18040
##rong<>21064
ditiadakan<>28320
##lum<>4770
kemunculannya<>29119
##onisme<>14264
reb<>11148
nikmat<>27395
pematangan<>31602
pertahun<>29914
##etime<>19437
##ternal<>11119
burkina<>29549
##ville<>7811
##erna<>14596
perannya<>6945
##ticons<>15326
autisme<>28777
[SEP]<>1
##isida<>28441
ekumenis<>24979
tomato<>15918
kepulauan<>3793
tennessee<>19790
##ube<>12709
gps<>19664
a3<>11380
康<>755
##enep<>16962
##imiyah<>23971
rim<>12668
menendang<>29494
##ustik<>14934
##yawan<>30833
luarnya<>25469
antarm<>12816
##atukan<>7000
##unduk<>10597
duyung<>26660
conc<>8729
gula<>6751
##jana<>4586
feri<>17021
##aftarkan<>10870
monok<>29931
##ening<>13323
ruben<>25820
wesolow<>31493
membesar<>18662
##chwitz<>29124
retno<>28258
menghasilkan<>3224
ilmu<>2739
fals<>22359
##ebook<>9922
papa<>20339
resour<>23176
alquran<>24234
cakrawala<>26017
kromat<>21327
asahi<>28338
แ<>370
perusahan<>26495
pakaiannya<>30308
thunder<>19602
akselerasi<>25754
dipercepat<>30258
dur<>5451
40<>3825
mendampingi<>15143
69<>7973
##ysis<>17297
terjemahan<>6199
##ajaran<>4632
dikat<>12458
360<>14731
children<>16439
kemenangan<>4129
##ching<>15416
mengec<>10818
dituntut<>18008
gelaran<>28189
wina<>9502
tham<>17167
roket<>7799
kuah<>20380
alu<>22661
mangsanya<>25455
torymidae<>27026
paman<>7843
begonia<>6736
call<>9775
rama<>8094
kakashi<>22948
rx<>28747
##oue<>31958
kalimantan<>4138
wol<>9874
psych<>5530
ditopang<>25706
pendapatnya<>23518
##lude<>5908
anggun<>15691
upi<>25110
dep<>2426
dinamai<>6049
rumit<>9838
##ilah<>2486
tersusun<>11107
rose<>11514
##rob<>18755
serambi<>21192
##yasa<>23463
mardi<>25920
chapter<>25935
imperium<>15295
lakon<>19482
##inggalan<>6856
001<>23646
bour<>9776
##þ<>1278
cd<>6455
rangk<>15605
bulu<>6026
bp<>6500
##quan<>30980
pertiwi<>23597
keseluruhan<>3238
##ologis<>4833
sejarahwan<>18072
1795<>23987
petit<>24489
##nov<>26593
dki<>8433
sltp<>18524
voya<>20010
##hii<>29819
uniknya<>25348
##व<>1296
terj<>2065
memperkuat<>7116
suksesi<>12873
memberitahunya<>31766
flex<>27583
kebij<>3765
berdasar<>15132
kawah<>11543
##hi<>2351
dirah<>27501
damaskus<>14038
dinikahi<>30956
fenomena<>7689
ds<>8819
dinik<>11196
dipecah<>18559
menggemb<>23863
modifikasi<>11176
telegraph<>30881
religi<>7969
##rokan<>18348
payakumbuh<>20298
haknya<>20825
d<>43
sar<>2916
hanyalah<>8926
farisi<>29944
ntt<>21062
##purna<>7270
妃<>706
malaya<>10669
##anced<>19440
##ingi<>12794
##わ<>1481
senbatsu<>19800
기<>31037
mahar<>16589
##w<>1030
membicarakan<>15869
benediktus<>14512
angkut<>16071
are<>7615
kaka<>12050
eryth<>26050
##egaraan<>6017
##tikan<>2355
1936<>8788
##agara<>12453
pramb<>17699
vick<>20683
futu<>27768
kuria<>29928
eksklusif<>10646
##araan<>2564
satupun<>16816
nutr<>13327
memperbarui<>21073
gord<>12082
##unggah<>13893
rasyid<>18315
ruth<>13936
##त<>1293
encer<>28734
lontar<>19322
##awan<>2026
##etia<>24206
menak<>6137
day<>4721
tou<>29490
letter<>23739
pangeran<>3385
##okrat<>10708
hed<>16029
isma<>8596
antis<>18810
ө<>188
##otika<>20180
##haus<>31872
corporate<>27479
##oya<>17595
orig<>9366
lobster<>31696
skotlandia<>6202
kabul<>22406
dap<>9085
manchester<>7937
lati<>20338
##utik<>31660
##esse<>29863
##ahkota<>13902
jalal<>21440
mencuri<>9497
datab<>15586
ft<>14475
##uka<>2711
radio<>3784
menolak<>4114
##edaan<>4287
##uang<>5129
perilisan<>10585
lancar<>15318
cu<>11175
rb<>18824
berbaring<>24603
##erai<>7234
##ental<>5102
##opik<>29187
ports<>28883
x<>63
feodal<>21757
少<>735
04<>7733
keempatnya<>20309
##asuki<>26550
##len<>8104
##ado<>5634
##obosan<>17742
colum<>8228
##arso<>18792
prabum<>27809
este<>27960
yustinianus<>24109
kaidah<>17464
tinggal<>2757
perompak<>25736
zanzibar<>29058
थ<>281
tet<>4533
##ugo<>11892
₱<>472
nhk<>23775
##icles<>27849
328<>30505
lombard<>17460
operation<>23951
花<>902
dekoratif<>28411
1898<>12239
pulau<>2408
關<>946
hadits<>11391
shel<>17434
225<>19723
dewey<>31805
batal<>7122
kelasnya<>23946
##duk<>2080
singer<>23979
epit<>30109
pab<>4219
lift<>17287
##rius<>27688
tool<>20843
##eki<>11653
pernapasan<>14414
terletak<>2101
##roe<>15464
penggalian<>13228
pemrosesan<>16980
##icro<>29401
kay<>9496
##istimewa<>16478
##as<>1499
flora<>14775
uv<>22151
merekrut<>12680
police<>23218
baku<>7874
liriknya<>16139
1952<>7610
penata<>17766
arabia<>18890
fiskal<>20110
diakon<>21054
##wari<>14506
）<>1000
diekspresikan<>29842
kejadian<>4857
labu<>17849
sosiologi<>13544
##alion<>16124
alat<>3342
##the<>18123
115<>11232
itupun<>24668
##ィ<>1437
diku<>11125
whitney<>22827
す<>515
##aliban<>29348
karboksilat<>31289
ј<>183
##elit<>2714
gubahan<>25524
drs<>6820
embrio<>18285
berziarah<>26197
##edia<>3553
regina<>23388
##grade<>15962
aktu<>28231
taksi<>15230
620<>29906
ov<>12735
percera<>15871
tepat<>3568
1964<>6595
tujuh<>4127
dios<>25916
せ<>516
##fir<>6731
aliran<>4410
lar<>2226
speedway<>22766
walid<>25589
buyut<>14467
menghantarkan<>28974
dayak<>7504
nowiki<>8058
##mani<>14088
asahan<>23196
##oft<>6966
##ك<>1035
ramad<>14426
##ß<>1240
diculik<>15673
camb<>9041
noer<>23703
theodora<>28905
dipungut<>28999
##thi<>20003
##ambi<>7022
##aine<>12986
voldem<>20007
##onde<>13130
warta<>7333
##idea<>29975
lrt<>25031
ace<>19803
bohr<>31279
kencana<>19417
koord<>6869
saty<>26297
sew<>21430
##ence<>4378
1885<>13388
dipukul<>17887
mutan<>28077
hidroks<>13406
##ita<>1782
mug<>19226
berkons<>20918
##akatan<>5824
claus<>28064
##buya<>30555
banyaknya<>7292
##misikan<>21992
nank<>26942
protes<>5295
temp<>9628
daud<>8965
entitas<>11177
mengatakan<>3270
memproklam<>19328
debut<>3730
pengadaan<>14973
magh<>20924
##asan<>1798
##enggong<>30783
ket<>1838
##incangan<>25709
##eber<>11349
harun<>13048
44<>6453
dieja<>15111
1998<>4084
maksudnya<>17303
yeremia<>18127
bol<>4572
##ayun<>30278
pound<>16011
##erahkan<>4309
色<>901
##zia<>13368
lgb<>16225
kenari<>28141
##ahan<>1672
##bangk<>9752
penggalangan<>26973
mening<>24444
##sin<>6730
ditak<>9384
stabil<>6574
pund<>15296
##ubungi<>12308
electronics<>26187
tumbuhan<>2620
##onsumsi<>8982
pengabd<>28632
take<>15598
ther<>9870
menghubung<>27215
berusaha<>4149
bermanfaat<>12652
assur<>28940
lambat<>8420
pengamatan<>8832
kelabu<>21910
makan<>2464
gerombolan<>18781
bwf<>21732
pertambangan<>9877
terhadapnya<>22668
institute<>7978
estimasi<>31648
##anggap<>2492
wilhelm<>10193
mula<>5275
yehuda<>10750
singapore<>13716
pertanggungjawaban<>30536
##akwa<>13125
##な<>1229
##anao<>18830
##ꦴ<>1307
agromy<>8541
1800<>13927
##pers<>16464
menanjak<>20932
##nih<>16344
tea<>27451
tech<>7509
penggerak<>12085
dipasangi<>30810
kemas<>11113
##akar<>2051
melindungi<>5704
films<>12573
pion<>17089
nano<>18549
terlindungi<>29761
sembah<>20782
707<>26888
sekali<>2779
phot<>18025
pemir<>11954
antr<>24171
ciner<>29622
group<>5188
gangguan<>6359
nissan<>17859
african<>20128
malai<>30922
manchu<>19394
##ant<>1705
serdadu<>18381
sumeria<>20322
##ikawan<>15056
melainkan<>6067
sc<>3234
inspeksi<>22391
三<>600
didampingi<>15455
sekretaris<>5374
##imia<>10123
ellis<>22820
peluruhan<>19094
violet<>30650
##ongkol<>29298
##izinkan<>6381
panitia<>9646
kolektif<>12474
sekembal<>19508
ambisius<>21178
cha<>6657
light<>10410
pelaksana<>9514
medali<>5999
##landia<>3449
##antes<>11800
barnabas<>28638
##ע<>1218
hermi<>22190
uigh<>24071
tak<>2165
berpasir<>20907
kegemaran<>29950
yorkshire<>23308
mempunyai<>2643
wes<>7643
##perimen<>23085
##opod<>27377
fusc<>24868
maklum<>15518
ն<>196
##waan<>10939
greg<>11584
popular<>16711
jar<>2501
benedik<>12751
##ahasa<>8940
disertasi<>21857
##udukan<>4210
##jke<>31228
##aya<>1692
jog<>10536
##tet<>19055
menemui<>8972
##ж<>1239
gb<>15624
υ<>146
cello<>28545
##identifikasi<>6761
memberikan<>2575
##irian<>5090
gregory<>16389
##inyalan<>20252
##andangan<>22532
menjarah<>19130
meter<>3496
dibujuk<>29370
nel<>6708
1940an<>29599
##sons<>14429
kendala<>16845
berencana<>8027
keram<>10293
lounge<>31411
kemerd<>4244
教<>782
kabupaten<>2198
penampilannya<>9004
##ewaan<>16778
pakem<>30058
##anna<>30088
theodore<>22173
lans<>16098
menyunting<>21931
##yangkan<>4283
142<>13243
raff<>17015
##reh<>15073
prasejarah<>15690
proposal<>13009
membant<>9214
bermaksud<>12327
##ze<>5995
##kler<>31932
tankobon<>30311
##fa<>3031
##cen<>30399
serius<>7695
perlintasan<>24249
castro<>14629
fah<>13278
percobaan<>7865
fat<>5989
##usahaan<>2311
diaz<>22207
francesco<>21832
many<>19400
ilm<>18057
##atur<>2858
beast<>16751
tio<>23664
menguatkan<>18451
apel<>15142
##ingkan<>5615
saur<>20377
fasilitas<>4086
fleming<>26808
bungk<>22591
wonder<>15719
gil<>6039
debutnya<>7421
watt<>24892
##kup<>3061
##awab<>3464
penandatangan<>14139
##lian<>21167
pater<>27799
stab<>20786
xa<>18441
ketahuan<>27462
##undaan<>17890
mengartikan<>23611
portal<>15763
individu<>5183
##uv<>18473
##house<>15036
##antika<>25043
gl<>3048
own<>24370
##adona<>26316
rate<>28222
didatangi<>23235
mengikat<>10210
adalah<>1566
##apahit<>8179
航<>899
##hirup<>24244
xix<>17487
menerimanya<>19354
##bh<>12640
##rut<>7477
penyelidikan<>9513
##angganya<>14528
ת<>227
editor<>9350
dipicu<>16773
again<>15589
usul<>7125
beper<>14707
dimakamkan<>7155
##oln<>13719
joao<>23766
dikontrol<>19635
cambuk<>30509
berti<>13995
lelah<>17510
356<>28723
kleopatra<>16648
##adar<>7704
##buluh<>12250
captain<>21561
stu<>2717
admin<>3703
##ren<>7109
##egoro<>7588
mab<>18019
kawin<>12392
##orang<>1759
setingkat<>12581
diklaim<>13590
##buck<>18886
tinggalnya<>20925
##gi<>1679
menempatkan<>6509
hingga<>1966
menta<>20374
##ores<>14300
reynold<>21915
diana<>15270
wool<>22475
##khos<>25405
##opro<>19798
ultra<>13233
bercocok<>18963
kompas<>9958
dibuang<>11627
setengah<>5298
general<>8737
penj<>3057
peckham<>20020
serupa<>5510
cara<>2870
microst<>29219
performance<>17895
diego<>13450
death<>11845
劉<>650
terpenc<>12586
penetapan<>11425
##enarkan<>12931
镇<>941
profit<>24424
moda<>20773
hidra<>19608
kalk<>16287
cyperaceae<>8629
alone<>28868
##ocera<>12755
##ept<>16812
uncial<>25609
ka<>1814
960<>27063
umayyah<>13880
bourg<>15570
wright<>13925
##wh<>23602
padepokan<>29587
1783<>31495
soed<>12946
limited<>13501
deh<>16745
##umpuhkan<>18444
##sing<>20808
tora<>29446
katode<>31471
lest<>9066
##uto<>6843
##49<>29290
lon<>12466
meh<>11086
া<>317
jernih<>17466
ben<>2416
utilitas<>22884
sudah<>2277
banyu<>24391
sesu<>2405
##unit<>27209
kolum<>20072
rico<>20283
initi<>25462
##ilis<>2204
jangkauan<>10715
linyphiidae<>6837
adams<>14947
##zhi<>20826
keled<>25279
mie<>19088
shanxi<>28260
kesayangan<>19681
menundukkan<>21005
♭<>491
begitu<>3726
nurh<>22581
tanduk<>2554
##agen<>7954
dis<>1761
##ᅩᆼ<>30906
mengirimnya<>26215
##uel<>4604
##gaja<>6417
##upsi<>7664
editorial<>21528
hilal<>31073
##andum<>31727
550<>18470
##iarkan<>6801
administr<>3740
kegagalan<>7891
oswald<>27515
player<>15232
kecapi<>30162
cc<>8638
kunci<>6829
tenda<>17490
anu<>26239
##hus<>20043
##tics<>15099
mung<>25490
purbak<>18214
sampingan<>18087
palest<>6425
muri<>23191
cuplikan<>19861
##orno<>21114
natur<>9112
##igami<>22643
##askular<>25897
tunisia<>14441
伊<>623
service<>9647
##anggungjawab<>20394
##adir<>11684
##ambah<>3638
kai<>8289
gurita<>26414
##usanne<>29877
##ukuh<>31600
jika<>2649
s1<>10181
##abet<>11490
luas<>2651
golkar<>12079
tahu<>4796
son<>5198
factor<>14051
yuki<>20177
##istribusi<>25143
##ikaga<>29915
##ław<>9793
lalunya<>23945
datang<>3242
lyc<>17623
dipertanyakan<>20438
namibia<>22640
hilir<>9162
##ise<>6890
##oween<>23616
penyebaran<>7998
##inc<>3068
champi<>5686
##aranya<>3236
mengancam<>9053
show<>5981
iblis<>12894
vera<>22198
krip<>16084
wajar<>16932
boyband<>18448
1788<>30249
keadaan<>3806
nyamuk<>19355
##ebutkan<>11276
diterbangkan<>18935
domini<>19443
dahulunya<>17756
dikutuk<>25635
kans<>9132
konf<>3785
mycomya<>17547
saudari<>11554
sepasang<>10069
pelarangan<>19380
##ardir<>26609
tr<>1841
##por<>2710
mered<>14866
tunas<>17225
diserang<>8953
riko<>20851
##ホ<>1253
jak<>10980
sanjaya<>20887
yoga<>19609
klim<>20103
crit<>12615
britania<>3277
terduga<>17521
##ouse<>14722
pistol<>11776
kerapatan<>20365
ho<>3498
axel<>31763
##rett<>19806
mengej<>6139
seminar<>12476
meluncurkan<>6612
hunan<>25219
万<>599
##ob<>1879
percampuran<>26300
ה<>206
geometris<>24463
jetis<>31900
julian<>14696
##tria<>19418
##ᅴ<>1472
end<>4664
##burgh<>12859
cust<>22853
penelit<>3243
boros<>28965
esensial<>19101
trip<>8760
himpunan<>11012
geum<>26440
##icarakan<>12498
##iru<>7693
##andalan<>23728
selubung<>29182
ditugaskan<>7368
dimulai<>3043
sayur<>11573
mutlak<>13065
ketu<>12908
kesejahteraan<>8764
memanfaatkan<>6614
治<>837
fish<>18669
##angganan<>21079
menggambarkannya<>24559
nihon<>26894
##42<>24271
##yle<>9399
pelag<>26247
nyawa<>12649
lion<>17048
##ehida<>20631
gotong<>20232
hemip<>30734
manggarai<>17692
##uten<>21633
berakhir<>3676
##tula<>22771
travis<>31636
afiliasi<>20879
raj<>5388
lemhan<>30049
desi<>10803
apotek<>25010
menyimpang<>19644
mui<>19177
tengah<>2341
1879<>15423
##ช<>1121
##oyo<>7824
tereks<>26281
##ecom<>19310
perilis<>9698
pendahulunya<>11862
palace<>18522
petra<>20544
nob<>6510
sederhana<>5088
##amuk<>14388
##hae<>21789
##ен<>26732
keji<>18833
##non<>11088
म<>288
ose<>20550
bentrokan<>19512
irama<>12468
共<>643
##inj<>4922
kubu<>10936
##ber<>1614
pembuahan<>27262
regular<>24010
##arag<>10740
diukur<>12002
√<>479
perjalanannya<>10731
ditandai<>7036
dark<>13452
##mn<>26349
pencernaan<>15641
amonium<>22883
aud<>6275
scientif<>26531
pemekaran<>8139
##umum<>3268
carbon<>28100
##bridge<>27239
produs<>4343
nin<>10227
spekulasi<>17390
uranus<>19751
diubah<>5457
lep<>4663
##adwal<>23296
1960an<>17005
##aganya<>22181
##epatan<>3949
bergi<>24239
ragi<>24304
dipatenkan<>28332
idul<>18904
mengadili<>28637
##bat<>9186
tercepat<>15274
##evo<>16212
series<>9364
wisconsin<>20532
kash<>13021
baud<>14413
musth<>31316
inform<>10581
diaj<>6915
networks<>28537
shig<>22885
pemberh<>19216
pengajuan<>23284
kedatangannya<>24824
frig<>24236
piano<>9679
##otria<>5903
menurunkan<>7881
bose<>29518
jeong<>16499
##ikut<>1981
epik<>13669
##isipl<>25042
ujian<>8379
selebriti<>16989
ridley<>27974
koresponden<>21885
hea<>11005
beruang<>12135
##atanganinya<>30060
##ley<>3772
sirius<>27576
huni<>31099
market<>11581
##taur<>21766
1947<>6911
##uras<>18826
niger<>20886
##industr<>16211
kibor<>30255
##lawan<>6047
lek<>13832
##romi<>19025
amazon<>14978
samarinda<>10684
fe<>6252
halogen<>30992
munt<>14164
##rek<>12533
memasukkan<>7010
minh<>18088
ug<>8591
neolophonotus<>21369
ronal<>22503
rodriguez<>22873
##ster<>5736
##itang<>22375
penggagas<>26899
berper<>3742
tua<>3466
apost<>8486
##ott<>5651
menjawab<>7850
menerima<>2998
mendeklarasikan<>15903
##ation<>2744
##laut<>19212
urbanisasi<>29669
##ห<>1342
##itori<>7173
##gar<>5271
##akami<>27371
မ<>377
produktif<>11760
kedalaman<>9080
longgar<>22309
gencar<>27643
membawanya<>10443
squar<>10204
deteksi<>20592
##vira<>30760
peroleh<>10565
ח<>209
maraton<>25616
##biakan<>29143
δ<>129
terisolasi<>17265
repor<>24985
compagnie<>25910
melindung<>26200
##odai<>28130
ڤ<>264
222<>25816
ष<>294
commercial<>29331
dikuasai<>7562
pelapis<>30485
bersambung<>23975
manajemen<>5062
mission<>13678
1520<>31610
reporter<>16510
skadron<>14433
penangkap<>21144
temannya<>6733
##antung<>3408
kennedy<>10095
tereliminasi<>21742
samguk<>30713
##don<>12170
##atu<>1624
henderson<>21176
shock<>20085
163<>23178
##asiswa<>3788
gagasan<>5635
##ꦧ<>1408
persekutu<>8758
mengejar<>8332
##hol<>8826
ganti<>9630
1868<>16051
##ekam<>22004
##ih<>1599
##omunikasi<>6741
apoteker<>26760
##uska<>22962
eth<>8455
peledak<>15693
disel<>5523
##cott<>28039
seychelles<>31374
alas<>8419
##engs<>21188
tumbang<>20244
loyalitas<>29956
kaw<>2713
##kang<>16332
krit<>16775
rebo<>19137
##rb<>26591
naratif<>26487
188<>4072
##akna<>10129
##idana<>18778
bernaung<>21860
##inho<>25037
princ<>7887
suasana<>8844
isbn<>23823
##ektivitas<>27590
sastra<>4420
produc<>7628
##iros<>23499
戦<>774
merebak<>31182
baling<>14495
broadband<>31212
mendatangi<>14061
memoar<>31984
kertosono<>29905
##eze<>30498
asimilasi<>28069
itali<>29988
elliot<>29049
##ukim<>10309
tersangka<>14208
berlubang<>26207
ض<>245
si<>2139
##atron<>14784
aires<>20204
dianeksasi<>25592
##sius<>10721
##zaki<>16669
seumur<>12769
##anjak<>14063
finish<>12707
##ilia<>3493
uruguay<>14754
filipus<>20089
bertanggal<>28293
releas<>29655
koper<>20396
maia<>26435
sajak<>15148
##elsen<>20828
pengangg<>16323
chem<>13997
dipa<>30987
sinode<>12713
nis<>12906
ত<>305
reformasi<>5923
year<>7984
riyadh<>25381
torymus<>14842
shri<>25667
##jipto<>26389
pengk<>11633
е<>156
##entris<>19375
perawatan<>7223
pelepasan<>15546
psms<>30573
xxi<>27496
dilepaskan<>12519
##udaraan<>15833
sanch<>23618
##ellata<>26791
##iny<>6501
timnas<>10144
kelayakan<>20364
fashion<>13277
##oritas<>3966
hija<>25508
memaaf<>26425
##jid<>3322
meditasi<>16180
panorama<>19170
buana<>21227
carnegie<>24232
##lair<>29453
merger<>17113
gsm<>22738
kelenteng<>23729
mengeluh<>22619
##bolik<>19264
##ం<>1388
donor<>19927
genteng<>18908
oktav<>26481
##ampang<>19619
##askar<>9050
外<>698
last<>12380
kemampuan<>3699
##umsi<>5274
kabur<>9608
pahang<>22086
diintegrasikan<>26152
##mos<>6351
amir<>9070
##ᅨ<>1466
rachel<>13538
reserve<>26459
##aruddin<>22001
khatib<>22273
skenari<>20331
penyulingan<>30885
yor<>26987
ensiklik<>23289
maatschappij<>17693
##jaj<>23818
zuh<>27937
potent<>15479
ি<>318
mengev<>17340
vampire<>26805
s<>58
metana<>19145
syr<>31133
batara<>15936
digantung<>19591
perebutan<>12550
sambal<>18339
##я<>1227
minim<>12934
dikaji<>30225
##tanan<>4675
##budur<>16970
membedakannya<>19277
guru<>3546
##yamin<>19302
agro<>21700
##oglob<>28092
孝<>713
dingin<>4781
##ubern<>15825
nasibnya<>30877
demospongia<>4641
berpakaian<>15239
pagan<>14856
##bei<>27773
balik<>5304
sach<>10014
jawatan<>17764
karibia<>13508
industrial<>17534
kemaharajaan<>24800
movement<>27194
memecahkan<>9782
cia<>11277
allison<>31945
##ology<>8440
##ops<>6619
##thy<>15058
laszlo<>19770
##pesialisasi<>31017
##omy<>6652
##arua<>24664
umno<>25666
digabungkan<>11697
imbalan<>14454
digagalkan<>30257
januari<>2772
tabrakan<>17004
ilyas<>22717
lincah<>25719
##tember<>2723
##indas<>16541
modernisasi<>18531
sandy<>19081
korsika<>25942
##enfeld<>28493
dampaknya<>21784
##eria<>7372
見<>913
##asia<>4225
remix<>15920
##anjutan<>5982
communication<>22416
pembatasan<>12869
werner<>25912
尊<>733
vie<>26230
almarhum<>11946
menyiksa<>26952
ក<>434
ses<>3471
duty<>28736
aisyah<>20275
##sburg<>8225
##ebas<>17519
##eid<>19761
##ambaran<>11448
chao<>18318
wallace<>16096
##ulang<>3933
##yarakat<>2235
##ianati<>18865
coba<>9406
sebal<>6065
kiprah<>19483
pemodelan<>25453
nag<>4851
griff<>18581
kecerdasan<>12925
##pet<>15210
##ypta<>23225
yash<>22099
calif<>5379
reagan<>20540
##chik<>30478
kosta<>19671
bona<>28795
konstitusi<>5117
コ<>559
musyawarah<>12552
##amia<>12200
##oros<>13846
##cr<>14058
utaranya<>31468
pertanahan<>30279
ragu<>13564
##oro<>3680
##enggam<>12744
kudeta<>9270
berkem<>24700
##oby<>31670
tor<>4246
smartphone<>24796
berkantor<>11628
##yod<>17261
they<>20463
##eyer<>28464
snh<>29423
roll<>12880
tesalonika<>29840
katedral<>7603
berni<>9929
skandal<>13412
fadli<>30067
tic<>31294
horm<>26767
206<>21068
##injauan<>24935
##uasai<>4366
eurasia<>17937
karna<>13091
terganggu<>12772
catan<>30393
tembakau<>11729
zoroastr<>30456
##tihad<>30763
元<>636
aleks<>7208
##imeter<>12243
merencanakan<>10080
purwakarta<>18671
dante<>24765
teatrikal<>26267
district<>16426
par<>1834
knil<>21132
##engkapi<>4825
##ф<>1362
pyongyang<>24133
langgam<>30529
##ilasan<>30404
dosis<>13741
##emens<>14626
lengkapnya<>12766
usus<>12764
terror<>26946
##isius<>12695
vlad<>11230
lk<>21960
##ucikan<>27089
sui<>13154
orange<>17591
ninja<>15359
##oklatan<>21473
##iklankan<>29105
differ<>26448
ca<>2827
liverp<>10539
1915<>11233
##enteng<>11810
peningkatan<>5060
dihadapkan<>18942
menuruti<>26296
evans<>18092
##odes<>9228
##embunyi<>8622
pavia<>29135
##hitungkan<>14178
naj<>16952
##aat<>16482
leeds<>17496
volt<>25674
##embelih<>24087
snap<>29782
銀<>940
inferi<>31959
##uno<>16976
loc<>12683
rond<>25946
pat<>2682
##etapa<>14422
1978<>5838
##ament<>24874
##پ<>1426
##lav<>5956
##emb<>2166
berkompet<>8113
music<>4999
unik<>5936
berawal<>8962
pengebom<>14504
dipentaskan<>15362
perbendaharaan<>25967
dzul<>27880
mengarang<>20027
tindak<>11396
diferensial<>23683
berhasil<>2498
ヒ<>574
puisi<>5430
pale<>11975
oman<>17970
dipekerjakan<>17178
first<>9533
##abo<>16891
release<>25783
mengurusi<>17759
judith<>23873
dead<>12297
monochamus<>30894
vog<>18884
hengk<>17008
lintas<>5459
edi<>22393
##ᴡ<>1473
##ern<>2515
tennis<>22725
##anku<>29201
dikenali<>12070
francois<>14190
##gayo<>23370
said<>11354
gale<>28361
lenin<>13163
meluncur<>22398
##aannya<>15198
##ajang<>8427
budidaya<>13141
sahabat<>6327
限<>950
animation<>16690
zin<>30208
teper<>23838
berseberangan<>22284
mengen<>2610
##isian<>12780
##iput<>20239
##chat<>24120
rein<>14347
ching<>23084
perubahan<>3274
prakarsa<>20691
tertuang<>23266
kira<>4826
eceran<>29892
arms<>31551
semarang<>5138
konvensi<>6401
elena<>23303
##ayama<>19488
mohd<>31418
kol<>2479
gm<>8983
jelly<>26626
cab<>9222
bajak<>13259
abdul<>4265
pengendali<>13730
1986<>5403
##ori<>2109
yak<>2902
menunjang<>10378
##yawarah<>11586
##uf<>4712
pradesh<>14887
residen<>12599
bilateral<>18419
lug<>19993
##umulasi<>20196
penayangannya<>31981
tomo<>29738
pemat<>18866
tril<>25779
eim<>30605
pul<>3026
patih<>13245
##enah<>27039
infin<>15465
perump<>19129
perhentian<>23152
colo<>22767
##itri<>16792
haute<>29585
ust<>30633
##ylvania<>12940
arkan<>31947
kuad<>20291
tautan<>28143
championship<>9292
beredar<>10776
##am<>1497
berbunga<>14851
dakwaan<>22091
recording<>24126
canc<>17672
membusuk<>27420
meletak<>10967
memeluk<>9843
diponegoro<>10959
166<>11421
##apia<>28864
statusnya<>11626
dibacakan<>19172
hamengku<>15686
61<>10647
##entaskan<>12928
hangat<>9820
##ɐ<>1352
kepan<>20987
1987<>5571
diorganisir<>30550
##jawab<>12205
ektoparasit<>26052
penggilingan<>28252
dituangkan<>21198
permusuhan<>17247
envir<>21381
kelembaban<>18897
langgan<>25626
flash<>13908
berduri<>25162
court<>16475
baratnya<>31327
wati<>17662
devisa<>31756
##chev<>21900
corporation<>7545
kemiskinan<>11365
##pek<>16684
jok<>12119
kristus<>5947
##ule<>10183
trop<>6129
membel<>13523
##itungkan<>14078
◦<>488
gal<>3631
kontrak<>4903
england<>16455
##enna<>17417
rina<>22150
mythicomyia<>27029
diperkenalkannya<>31964
sholat<>24486
sore<>9449
map<>10086
perbankan<>10990
##ose<>9349
bawaan<>19590
##upu<>7241
kantong<>11861
vinci<>26275
dermaga<>16330
##anda<>2012
dedaunan<>23012
lady<>11268
advent<>18357
propaganda<>12332
lebaran<>23275
louise<>18337
independen<>6076
##esh<>5209
morales<>31885
chalin<>27642
##lio<>23277
hidraulis<>27115
mengerti<>13181
perekrutan<>26751
##lasifikasikan<>10163
sezaman<>27360
dy<>10846
dikalangan<>27418
dipaksa<>9083
rano<>28626
mp3<>29155
hamengkubuwono<>29543
help<>29524
penafsiran<>14743
##aden<>12359
pencapa<>10701
marathi<>26028
terpisahkan<>21343
karikat<>31241
anti<>3551
mendes<>6868
echin<>23458
##ifa<>5765
kelantan<>22006
##ything<>25758
ops<>26701
memihak<>19796
##jek<>3490
##31<>12976
sense<>30628
hanna<>26930
ᄈ<>398
tembak<>12911
##eknik<>11876
menyalah<>26429
josephine<>30948
##マ<>1204
mutasi<>15709
darussalam<>14140
##fier<>28251
canter<>20655
kontestan<>10388
##uld<>22268
cermin<>13384
membujuk<>12006
mega<>12334
tema<>5061
berkat<>6325
suriah<>6797
oil<>16912
bulir<>29924
ф<>170
wangsa<>6491
jip<>23365
didek<>15616
jour<>20524
seok<>24443
##tiv<>2526
##under<>7305
dancing<>29070
menempel<>14594
bond<>9119
##iskinan<>11234
nuri<>27986
##esm<>4984
yekater<>26719
arthropoda<>2087
fo<>3834
seperempat<>19125
34<>5478
analogi<>26240
competition<>27931
##of<>3097
bin<>2927
##onomi<>2791
bertak<>15703
holdings<>20570
##aturan<>4068
##ao<>13608
##jauhan<>23886
ต<>351
kepercayaan<>5270
bit<>7682
##integrasikan<>16117
terapan<>18007
pemenuhan<>21794
##ating<>13947
##sek<>24842
separ<>18765
bertumpu<>28209
##iayai<>12415
disepakati<>12508
meluas<>9483
##tod<>5934
metanol<>29903
syukur<>15026
##yani<>13800
keber<>3292
##ework<>24449
##ger<>2758
keyserling<>29901
malawi<>30042
instrumen<>8210
teman<>3921
cemp<>17828
premis<>31635
lebih<>1757
lang<>4335
tasmania<>21179
##η<>1047
##ingia<>30157
bou<>16516
年<>753
berorientasi<>14184
halim<>15273
peradilan<>12994
alexander<>7754
coast<>17753
ո<>197
berbah<>4082
##akia<>8134
nec<>18359
meliput<>23672
scan<>25401
##wakan<>5773
bukhari<>26746
teoretis<>15821
##wir<>31300
jamu<>19374
indrama<>16407
phytomyza<>13824
##dh<>21573
unicode<>24534
ponorogo<>14332
imran<>31053
dilaksanakan<>4726
kilang<>20211
torpedo<>12461
dihadirkan<>30234
五<>613
para<>1855
mena<>7542
kerbau<>11195
##fri<>12900
konfederasi<>9629
##ն<>1198
amaryllidaceae<>15657
gorontalo<>10452
ciamis<>16896
commer<>17049
alexandra<>19873
pura<>7402
gumpalan<>30462
##ayamkan<>31728
gilgames<>29598
manag<>8277
র<>312
didirikannya<>16563
ying<>18099
keamanan<>4275
##tujuinya<>26221
vamp<>13709
##له<>23724
diwarisi<>28484
mana<>2369
cli<>12407
##ilik<>1691
1793<>25631
21<>2962
schwarz<>27626
serigala<>12847
kepunahan<>16100
##presi<>6949
##issance<>20847
##awari<>26949
mempert<>4036
adv<>7556
sibolga<>31371
myanmar<>9700
farrel<>21855
menceraikan<>28114
##utuskan<>3522
pembaca<>9030
pay<>6903
193<>2775
##indah<>3173
##ulak<>29397
drop<>15863
##enuhan<>18552
punggung<>8495
##ini<>2149
influenza<>21405
negaranya<>10522
primitif<>18506
senya<>4753
##tun<>4867
sosial<>3073
dwi<>14994
direk<>5013
cib<>10132
lipi<>27018
sic<>21787
##ruddin<>24690
augustus<>15927
plasmod<>31490
independent<>18380
##andanya<>8397
perman<>8066
konsekuensinya<>30777
##blue<>30378
dukuh<>7861
##ency<>10281
kelautan<>15030
meminjamkan<>26864
mengiringi<>18568
dikhususkan<>18982
##mond<>9301
thera<>17793
nasihat<>12184
##titusi<>13950
koin<>8507
helen<>18417
melemparkan<>16566
rc<>9267
ske48<>21039
komisi<>5055
##orbanan<>16480
kebugaran<>28828
##র<>1105
##sih<>6925
raks<>6703
##egahan<>11707
校<>814
isu<>6560
##anangkan<>19599
bordeaux<>24794
ʿ<>121
diajak<>16120
##ianak<>11282
##anji<>5259
viral<>26523
terhambat<>23474
1971<>6464
ladang<>8064
##aras<>10593
penempatan<>14543
khitan<>22537
##rov<>8562
dijadikan<>4292
##emat<>4491
sams<>12035
\<>35
##ា<>1427
regu<>16572
diaman<>30402
tant<>7487
lokal<>3735
羅<>889
ker<>1699
##zyn<>20066
penularan<>23493
##ratu<>31592
mikrob<>23417
athena<>8161
##ric<>9179
##ebak<>9784
303<>28774
kea<>22834
sheffield<>24068
puak<>27698
ibtid<>17211
eich<>30204
cart<>26441
perilakunya<>29228
nak<>8746
ironisnya<>29166
ヤ<>584
berbincang<>31607
cum<>16186
##º<>1242
stabilitas<>14097
sampah<>9439
moskwa<>10579
yamaha<>19582
pitu<>29766
102<>12127
dikembang<>30914
topeng<>10869
##let<>4243
##acht<>15125
steroid<>30589
muatan<>8373
diduduki<>11213
##ζ<>1046
##ov<>1826
##ambahan<>3764
mengikut<>13355
leningrad<>27435
##ongkan<>24511
sulf<>11513
menjunjung<>20835
wook<>30251
##stal<>12749
##oso<>8219
pawai<>17581
tari<>4502
industri<>3049
memungkinkannya<>25725
gemilang<>21252
電<>960
jah<>11557
aviation<>17077
race<>17228
beauty<>19788
boston<>11229
eimeria<>31772
demak<>9866
direktorat<>9980
bedah<>12324
hubungannya<>9328
##ainya<>5220
##gata<>16539
siang<>7366
memaks<>12381
vag<>16882
diinstal<>31365
biji<>7034
##laf<>14538
jurnalisme<>16767
subway<>31810
fol<>11047
##awatir<>10372
semangat<>6794
ditawarkan<>10844
col<>2121
##adari<>5521
keluar<>2201
berbohong<>23141
ᅲ<>422
ekornya<>20958
komar<>30480
##ager<>21461
individ<>4740
gory<>13942
cabe<>24297
^<>37
mengangkat<>5685
tibet<>9199
##lov<>19597
pelari<>21968
##ych<>5008
nal<>15524
kopling<>28145
##si<>1581
abi<>12676
##y<>1025
##ukanya<>21824
keisl<>25039
haruka<>23697
##ニ<>1405
melawannya<>28996
watak<>22193
##pus<>9993
diperlakukan<>16647
derby<>14125
nurani<>18258
menyetujui<>8522
holding<>15192
##テ<>1287
##ween<>25858
ow<>13203
##ominasikan<>7703
jermanik<>19494
keramat<>16266
##fur<>20753
argent<>29715
diduga<>6237
priok<>21689
mer<>1564
senilai<>10657
##enggung<>13028
##ajaya<>15471
pattimura<>28488
marxisme<>19630
raya<>2980
atlet<>8053
chicken<>29387
rancangan<>7049
doraemon<>22809
konstitu<>4690
##bung<>13238
penembak<>16457
psi<>20041
sad<>5343
##ubungan<>2546
gk<>19992
powiat<>28325
destinasi<>15186
pembeli<>15205
laki<>2724
teliti<>22351
lam<>3384
spirit<>16427
##atologi<>27889
1824<>23098
yam<>8710
趙<>923
disebut<>2062
chennai<>25687
gombong<>25764
ketenangan<>24731
pang<>2808
!<>5
i<>48
merak<>17162
induksi<>23136
rech<>25747
teridentifikasi<>26507
第<>882
##apas<>22233
##atikan<>5182
keberanian<>13008
##ophyllum<>5519
melukai<>15160
##nor<>26818
karismatik<>28604
ketupat<>29324
keripik<>28812
rans<>26055
meren<>26352
##utif<>5594
priestley<>29548
##pansi<>9582
pesiar<>24436
gar<>3547
situasi<>5711
##dot<>28552
sarapan<>24046
shiv<>24419
cinc<>7377
lakukan<>9008
mayor<>7266
mengins<>22052
lapis<>8623
wessex<>31973
susunan<>8067
hills<>16309
306<>30112
##tre<>9474
##aih<>3045
jumlah<>2337
##bolinggo<>16695
kesaktian<>21122
diartikan<>10588
judi<>25945
remb<>30611
komposer<>12011
memper<>2046
simbolik<>27187
humas<>23769
##ರ<>1365
mengusir<>9430
menemb<>5793
konversi<>14106
serapan<>22459
spike<>28178
holly<>22719
civil<>19827
terjauh<>25607
at<>1794
##estor<>8637
arsip<>11895
rani<>17912
##ish<>3702
##ild<>6583
##ark<>3075
##jar<>12836
knox<>27770
##isse<>19504
papirus<>14284
diizinkan<>9721
marconi<>27400
##ectus<>24417
klinik<>13791
exc<>16230
##abor<>4326
wells<>23901
##ว<>1375
23<>3152
rs<>7501
##edikasikan<>10741
pemad<>13784
##ム<>1438
living<>22385
tarif<>11644
##eras<>12285
ghetto<>29379
kelaparan<>11615
mercury<>19673
simpson<>21159
daend<>26289
menc<>1822
subur<>9304
47<>6272
grac<>16672
bram<>19588
常<>751
stanford<>19876
言<>915
lukisan<>5350
resin<>20974
cop<>6785
dikembalikan<>11198
pertanya<>7276
##rish<>26511
cw<>26813
sekuritas<>31581
muat<>23813
1883<>14671
##imbangan<>6138
resources<>30818
perbud<>14145
berhati<>18181
ramp<>15475
bahasanya<>24578
utah<>21555
dirancang<>5171
meniti<>30553
secret<>12395
##ᅬ<>1477
yaitu<>1971
##hy<>9107
##rated<>29019
ragam<>9974
325<>22891
pengkhianatan<>19012
sebagai<>1600
kelulusan<>20757
keledai<>26586
##osia<>16839
kebangkrutan<>23456
gerald<>23639
diagonal<>31698
東<>811
##endiri<>7520
pertikaian<>16481
buj<>9622
trunks<>30133
badannya<>16995
ვ<>382
dikerahkan<>17367
qing<>8356
meyak<>9006
stress<>28242
tatan<>13016
belajar<>3540
##esco<>9230
universite<>27648
teguh<>13143
38<>5627
ilegal<>11104
keser<>20670
berkep<>12630
diimpor<>21364
##و<>1070
##ospongia<>4506
administrator<>16318
administration<>20395
pencampuran<>26442
##amang<>26125
##hya<>14221
##atri<>20852
##urung<>17098
drummer<>13300
##ez<>3886
##apa<>3510
irjen<>27254
##க<>1480
kuarsa<>30595
##aries<>24375
berlebih<>19280
wildcard<>23844
tersesat<>27533
diterapkan<>7527
##ichi<>8679
ћ<>184
muslimin<>16544
dion<>18565
kategori<>4038
##ba<>1545
##ine<>2488
rw<>6759
normal<>7070
runner<>10453
software<>12192
enak<>16093
niis<>18623
mere<>18754
io<>12110
sepi<>20261
##obar<>16942
beranjak<>22027
munculnya<>8517
##oteknologi<>22555
dutt<>29428
dikuc<>31392
##erapan<>8878
midway<>26341
cover<>12403
arian<>23756
bersim<>24214
lahirlah<>19784
##tow<>27903
jur<>3258
roma<>3984
##emas<>17477
angel<>8634
etil<>30495
hormon<>12465
calcar<>17951
takahashi<>27031
##wood<>5572
lempengan<>20061
posisi<>2928
dinas<>6631
黃<>976
ask<>18602
pori<>19431
##enovasi<>14891
bolshevik<>16063
sekolah<>2192
##encia<>14367
richmond<>26108
galang<>20562
diatur<>6953
fanatik<>27756
risiko<>7166
##itkan<>5297
menandakan<>9963
penyergapan<>31216
gerejawi<>11241
pelatih<>5905
##embunyikan<>11452
##intangi<>3607
##usuma<>16549
berapa<>13634
kediktator<>24930
##edak<>7908
dolich<>20787
244<>29882
##antum<>7718
##opus<>11083
indosiar<>14213
bij<>7090
mieszko<>21861
##ities<>13611
cic<>11129
vegetarian<>24896
jum<>6723
didengar<>18972
pemotretan<>28543
cok<>5527
pondok<>6496
##tata<>19716
tersebar<>5636
celah<>11495
`<>39
##anten<>27947
##rac<>13651
drastis<>13655
selangor<>18910
mod<>2342
##া<>1103
hao<>24645
hog<>14143
memecah<>16679
kenalan<>28521
sembilan<>5429
hopkins<>23571
##ungu<>15909
bungo<>23183
1929<>9075
tersukses<>23644
全<>639
##upe<>16155
##ukum<>2447
##orong<>4003
angeles<>6663
mengaj<>3477
##lix<>17239
diff<>28700
##ukses<>18443
##imin<>12225
mohamed<>21360
##caya<>5056
once<>25015
terfav<>30156
##otr<>5156
##ilius<>24082
terumbu<>16082
rais<>22215
jebakan<>24831
sepulang<>24205
tujuannya<>10487
dukungannya<>20171
ekstrakurikuler<>11893
mengagumkan<>25939
##ovie<>31122
##ofon<>20250
##usun<>3005
韓<>963
ota<>30754
diagnosis<>16270
penelus<>29238
rajas<>27103
saf<>9840
kejayaannya<>22889
dirumah<>24877
martab<>17086
##yanya<>4907
menyukai<>7355
ff<>23528
n<>53
gmbh<>24155
abram<>22032
jimat<>26222
qi<>12134
ampun<>29017
dns<>30203
ombak<>16722
vila<>22452
##estyle<>29646
asmat<>23538
##oth<>4233
dijabarkan<>26924
ribuan<>7721
##sion<>7072
bidadari<>18941
niaga<>16718
cub<>21652
##osiasikan<>13142
panggungnya<>22671
dibicarakan<>23255
emmanuel<>23507
soekarnop<>25021
cardiff<>24228
zealand<>25690
abubakar<>30369
daerah<>2042
dialek<>6125
telinga<>10375
saturn<>14434
hon<>7941
##agari<>22130
##par<>11423
seleuk<>18044
mengacaukan<>28431
tv<>3579
##ikil<>25568
tal<>5931
penit<>29913
estr<>24587
lingg<>24539
h<>47
ottoman<>15734
aun<>31996
yoo<>18801
sph<>24079
dike<>22801
malapet<>26063
mif<>25309
kolom<>9308
fiji<>19044
broadway<>15095
ris<>4100
kimiawi<>20184
penarik<>31307
jurusan<>5255
gh<>6946
marj<>27689
##ulikan<>14420
status<>4109
sports<>13582
bok<>15547
misi<>4035
monarki<>8759
##oden<>25571
maq<>26559
gandalf<>31076
sanchez<>25692
liech<>22210
lyd<>20628
menganalisis<>14276
mushola<>25216
contra<>31409
dictionary<>24817
mengk<>3666
demikian<>3290
konghucu<>29711
wul<>29554
perencanaan<>8121
##alt<>18989
menyir<>15856
agustus<>2759
dikenakan<>9746
oblast<>15267
penyanyi<>3645
council<>13924
##iris<>14542
keton<>28451
puteri<>8329
yasin<>27480
##antium<>7896
penanggung<>27128
bupati<>4585
cua<>8213
##entangan<>7188
rupiah<>12164
transmigrasi<>16815
menuntut<>7113
lux<>16170
darinya<>12175
estetika<>20614
tach<>28490
ikat<>16235
dog<>10155
cv<>18272
sersan<>18603
ɡ<>109
wiscons<>20525
##bid<>26944
menghar<>7658
fr<>2181
perpisahan<>17706
##bisan<>25033
calabria<>29961
diturunkan<>8203
winner<>24062
dehid<>23716
kafir<>19075
zem<>25529
mengusulkan<>8590
karl<>8026
latihan<>7087
1942<>6280
sinonim<>20168
##aratif<>29558
kembalinya<>14474
padova<>31752
memancing<>13926
brussel<>21811
antrop<>10440
##atra<>11533
bagaimana<>4856
##aray<>24202
screen<>14121
menemukannya<>22382
these<>24516
##ja<>1767
giat<>18226
kesuksesannya<>26418
pbs<>29337
c<>42
materi<>4628
##upi<>10551
ᆨ<>426
##integr<>14807
willis<>29079
satan<>30466
##iskusikan<>16755
dias<>7020
gori<>31776
madura<>8699
sepat<>23024
dialah<>19958
##allahu<>30261
##ces<>13752
tepercaya<>24260
mills<>28771
hadap<>22795
wai<>21309
buy<>23382
kitty<>30953
##wak<>3323
dekat<>2569
sesep<>17264
gy<>14363
##us<>1521
##ingrad<>23536
selisih<>18054
pencahayaan<>21958
otoriter<>26075
nik<>5227
keset<>7830
space<>10027
terper<>13652
朝<>804
##ikuti<>2820
€<>471
λ<>136
mentransfer<>25641
f<>45
##ut<>1565
##ports<>24919
brahma<>20188
proporsional<>20736
dekomposisi<>27467
jb<>29111
vand<>18035
lau<>19061
##mans<>23217
##ilot<>27412
##ய<>1181
lengan<>9334
historia<>25406
parat<>24846
大<>700
##inasi<>2697
##amad<>6847
##lington<>21418
jalil<>24782
##olak<>3422
mutlaknya<>3443
saint<>6998
##ertifikasi<>20411
with<>6696
mengejek<>24293
muc<>26094
india<>2707
penangkaran<>23962
kepindahan<>25352
##isasikan<>20485
##urai<>10196
fuj<>18967
katolik<>3428
terinfeksi<>14228
##enam<>6091
##end<>1652
wales<>7318
mulawarman<>25327
teph<>6313
kepahlawanan<>26588
organis<>15282
dihind<>18815
malcol<>21988
bermitra<>23668
（<>999
##gh<>12141
##epan<>10610
##untungkan<>9153
seoul<>8810
##con<>10977
reproduksi<>13420
exechia<>26521
pluralisme<>30668
three<>14166
potong<>15510
sofia<>17276
zenit<>31162
spongebob<>10320
##adaya<>16081
##kov<>14915
##kul<>13702
archit<>22092
##orin<>27892
jeju<>27620
clap<>31549
sisi<>3491
thai<>12409
##olisis<>13872
##odeon<>16234
menyumbang<>13684
saropogon<>31751
krl<>10896
##oyong<>25397
menyulitkan<>26759
cas<>6920
##ohor<>22534
kemurnian<>19700
berlibur<>23237
pippin<>24925
berfungsi<>5136
dipercayakan<>20278
ommatius<>19769
fre<>6672
operasinya<>16497
1897<>12804
diutamakan<>29106
league<>7390
pelaku<>8652
februari<>2964
bonto<>25248
dibuatnya<>19237
dipertuan<>28406
kelopak<>16941
kedu<>17028
##enya<>8464
松<>812
camera<>25172
##mel<>13193
standl<>31680
anis<>17341
boleh<>5973
mirip<>4245
kuliner<>12600
selebr<>13530
aden<>19897
dortmund<>25694
pengarahan<>25136
##angan<>1662
lola<>30825
##onaktifkan<>18986
akta<>13348
panasonic<>24290
yustinus<>27662
amangkurat<>19157
dievakuasi<>23875
meng<>1561
ꦱ<>992
mengarahkan<>11746
arifin<>15745
makassar<>6760
majikan<>20816
sino<>26612
perkantoran<>14736
seas<>25498
##emoni<>15305
diandalkan<>18246
##bon<>4016
jkt48<>11009
tt<>19538
dalang<>14269
treb<>27214
tipulidae<>6743
intens<>11915
rujukan<>11271
dro<>29682
##arjo<>8302
ditenagai<>27950
amnes<>23919
urban<>9966
meliputi<>3369
tumenggung<>13754
cakup<>14235
disegani<>23673
berubah<>2695
memburu<>20199
geos<>22305
belut<>27644
bertelur<>6135
kemb<>24728
lisbon<>24561
##erankan<>7232
finalis<>10340
##ensiunkan<>29306
##ama<>1552
della<>18152
selembar<>27847
kapasitas<>6019
oz<>14456
##asik<>4601
kurungan<>28134
bapak<>5887
pitts<>22041
尚<>736
##mak<>28858
ryuk<>20152
1819<>24176
##kar<>4953
mengangkut<>10074
##irilah<>25316
pijakan<>30452
giovan<>14261
impl<>9999
emeritus<>22736
pandora<>27913
vish<>25221
lig<>12124
berik<>11328
four<>12564
##imalkan<>17038
humani<>25822
abdom<>28238
##ofisika<>24368
##ρα<>24076
##acun<>11636
kesen<>5607
harv<>9005
waktunya<>10508
##fis<>15003
sekutunya<>17653
##ziarah<>14291
210<>18278
##eva<>12833
##eway<>21070
kerusuhan<>10007
mempengaruhi<>7330
penyelenggara<>10341
sug<>11382
特<>852
pterolophia<>11538
saji<>21980
favorit<>9312
atol<>22378
##icot<>30840
hach<>31440
seine<>15413
digerakkan<>17984
##inde<>31120
asti<>26737
alonso<>16569
alja<>11749
dies<>30686
mahabharata<>16448
say<>4937
##ikasi<>2110
##you<>28169
sepihak<>24844
disamping<>8915
austin<>16918
##itarian<>17281
tumbukan<>27142
sebaik<>23213
lencana<>17209
##cic<>28170
think<>24978
##phi<>28083
aluminium<>12413
cipinang<>20766
salvia<>8460
berwawasan<>30248
mait<>28949
##onstr<>7939
##ч<>1088
tumbuhnya<>24890
margin<>20349
hood<>25817
fitri<>13712
##ankan<>5346
uy<>26503
epicypta<>27489
##atus<>2953
##ji<>3359
navarra<>26307
rasio<>8048
sewaan<>22342
xylotrechus<>26310
yon<>8334
##abiskan<>5641
##urv<>27548
northern<>23285
kelah<>4413
austr<>2789
pret<>14111
##tik<>2244
olympic<>20276
code<>9578
##onica<>20875
##tasinya<>25203
bertulang<>27726
zhejiang<>25711
mengharuskan<>14789
ketut<>30184
train<>10157
dipulihkan<>18220
ال<>8152
##inggi<>7428
kepengurusan<>17426
dianggap<>2823
##omod<>13129
##unjung<>4776
meteor<>13456
diperbarui<>16296
miri<>24023
party<>15019
##ithec<>30059
##ogiri<>15438
##lab<>29858
##gl<>14110
narnia<>28966
ditanggapi<>30537
menyambut<>10856
音<>964
anak<>1942
dipro<>12180
ganj<>14660
blood<>15308
##esisternus<>21725
dream<>8658
grey<>16472
##ingsih<>27589
folk<>19340
lubis<>19323
menaikkan<>15053
durian<>15207
asa<>13460
##oda<>1987
2007<>2888
reaksi<>4655
area<>4790
baldwin<>23291
liem<>21850
buletin<>25574
##ayahan<>30473
berdarah<>8536
biak<>13491
##tebr<>16242
antioks<>24554
penanggalan<>14516
hungaria<>13470
tinjauan<>18030
##wen<>23465
semester<>15534
font<>20064
##je<>8643
laut<>2291
mengabdikan<>20790
pacific<>12814
koreksi<>25236
aria<>17652
ketidakm<>19377
habis<>8407
excell<>29544
##aq<>31107
pil<>4248
far<>4974
ت<>233
tenang<>10489
dikubur<>23232
marquez<>28290
kritis<>8070
kritikan<>17826
bertiga<>19534
火<>849
##igin<>23615
terber<>25276
##fall<>30978
bart<>17597
##pura<>9926
menganugerahkan<>24012
diusir<>12434
role<>30583
elevator<>30892
hukum<>2552
pontianak<>11494
##inang<>12609
左<>746
福<>874
straight<>27906
bima<>9823
rowling<>25482
##elaran<>13904
##cal<>15257
resolusi<>5302
keleb<>10240
##enis<>2293
warriors<>25760
##ει<>28224
banggai<>20742
khalayak<>15715
diwajibkan<>15254
didih<>26360
dominikan<>28481
dida<>17593
protocol<>23650
menjuarai<>11267
##esuaian<>13149
宗<>720
goth<>13121
kolonial<>6469
pengus<>16145
1902<>12191
terf<>22129
just<>15453
supran<>17560
menyelinap<>28617
contr<>10118
ध<>283
andalus<>25199
v<>61
usai<>8126
##arki<>6410
melarikan<>5485
kenny<>21513
ceko<>10015
1983<>5774
teka<>20157
ditarik<>9477
6000<>25175
##ecta<>30288
kontributor<>19388
salatiga<>15649
smithson<>31566
membacakan<>19821
grafik<>12949
dehidrasi<>30602
1840<>16924
##idaceae<>6571
kenik<>25814
sponsor<>10284
jap<>16503
fisher<>16752
hades<>24324
##right<>11029
exper<>16061
aliansi<>8285
imperial<>16310
penjualannya<>26749
putri<>3095
media<>3203
indramayu<>16529
д<>155
distribusi<>7758
pintar<>12246
oricon<>12022
nyany<>11744
##inavia<>18252
dipersembahkan<>11696
kuz<>28456
##ontin<>18664
##ifer<>12962
定<>722
rat<>4409
##ष<>1460
##unjuk<>4454
##agromy<>15197
##tuk<>1557
joko<>10492
some<>22923
dikebumikan<>26186
putera<>8392
kolega<>30638
ს<>389
##ல<>1095
perw<>4875
##ative<>9760
biseksual<>25355
kwartir<>29273
ketidak<>5528
##ibo<>20759
##ikaze<>29980
##lambang<>31804
konservasi<>11424
genta<>25319
sund<>9883
prajurit<>5336
##yom<>19793
ingin<>3336
hyde<>27807
##aporkan<>4605
##ajian<>6641
pelarut<>13786
menghuni<>15541
schwar<>17893
##eries<>25543
portugis<>6328
sty<>30227
yuan<>8648
job<>15482
hos<>15403
រ<>435
tergel<>26479
##usa<>9044
moldavia<>30061
mendekatkan<>28727
##ien<>31109
359<>30431
##mash<>23588
pengamat<>10033
egg<>29792
hymenoptera<>25305
rew<>28694
##yong<>20456
busur<>13585
##olongkan<>12443
maksimal<>10145
semanggi<>27627
##н<>1063
力<>651
perempat<>12003
oasis<>21216
menjabarkan<>22691
##ece<>17676
berlaku<>5564
rooney<>28299
athletic<>21257
limau<>31476
pelarian<>17731
penerbit<>5886
tenggara<>3808
brock<>28471
berdaulat<>14618
sekalipun<>10810
bakal<>8960
carp<>23306
dsm<>31634
aber<>19537
##iaman<>9164
##etik<>3964
##arti<>21866
ova<>31519
1967<>6277
##sas<>27123
##elus<>11081
ketiak<>30111
##voir<>27193
technology<>12659
mediator<>30451
tek<>2234
##anggung<>3474
##enagai<>27132
supaya<>7153
##osari<>9835
spion<>28497
edmund<>18961
moder<>24852
menemani<>15440
merekonstruksi<>31891
valu<>18729
subroto<>27562
##rati<>31383
gulat<>19580
tern<>5491
melemah<>17973
##ther<>9891
##astro<>16945
akan<>1786
supp<>23763
pepatah<>26016
ipar<>21298
##ederasi<>9551
##iano<>6859
riway<>8795
erotis<>28634
##upta<>20260
##onim<>8349
mycetoph<>5794
faqih<>28830
##cho<>12795
व<>292
roberto<>20658
mandela<>20927
##26<>16914
didunia<>31191
##olan<>7613
hidung<>10774
berpaling<>27140
heinrich<>9854
terlarut<>18872
##osol<>19797
ode<>24267
alarm<>26473
komitmen<>12155
fikih<>24432
margasatwa<>29485
keikut<>22153
abdel<>26928
##asm<>21656
himmler<>31078
##ikuler<>11381
exo<>18721
1864<>14611
##gard<>21393
tatar<>14981
pipa<>10435
xiao<>15537
pemindahan<>15106
##gai<>1584
terba<>2582
terlah<>11345
dimakan<>8909
memperl<>5080
##mine<>22595
pemerintah<>2357
##vier<>15498
##chne<>21796
skema<>11814
asing<>4348
##itik<>2134
epif<>25999
##adur<>27242
selepas<>12956
cyber<>16237
produknya<>17796
pengkh<>12167
terob<>25346
##ohol<>8337
bri<>9471
##andanu<>30741
pengangkut<>16955
ramses<>29021
andal<>18295
mojokerto<>16163
noor<>18255
jelek<>22554
armada<>5137
##ajar<>2864
diob<>23820
mendapat<>2273
perikan<>8750
kepadaku<>27265
try<>30703
mandat<>13759
memory<>20214
##taw<>29630
##osin<>19453
204<>21720
boris<>18606
fiat<>24555
syafi<>18073
spesialis<>13197
ear<>6655
felix<>17428
damon<>25371
kancah<>18658
perlawanan<>7193
watu<>16953
katup<>18690
tuna<>18751
lada<>14624
penentu<>19618
ghaz<>24535
##any<>1687
merespons<>31764
紀<>885
kembali<>2092
##iraja<>27940
ujung<>4549
##afs<>7295
sat<>2555
sailendra<>28913
yun<>8783
kriket<>24381
##asilan<>6083
च<>275
willy<>23888
##sc<>8238
minyak<>4300
##my<>6266
manapun<>11010
adu<>12349
supra<>31198
bubar<>14170
auckland<>29681
##entuk<>1856
serayu<>28656
1875<>16357
konsistensi<>29668
menyetujuinya<>29197
##キ<>1280
##ョ<>1464
feminin<>24863
##フ<>1205
##umpulan<>7147
pengej<>18933
terbitan<>12547
umb<>18796
飛<>967
multimedia<>14905
memperdebatkan<>30256
pengeboman<>11261
kiner<>8681
dilintasi<>20950
##asila<>12203
penghitungan<>18936
hunter<>17526
sekarat<>22376
mand<>3721
pembengkakan<>29439
pemba<>3459
pixar<>26306
##astra<>21819
moore<>12546
such<>26692
swasta<>4890
herbivora<>8829
penolakan<>11023
anting<>28809
associated<>31690
##tens<>8902
tangkis<>12663
ikatan<>5662
nug<>9215
bumn<>15637
kekurangan<>7986
macan<>13670
plagi<>24317
dien<>29806
cambridge<>9906
social<>13500
##obi<>6718
dikepalai<>14459
kampar<>18666
##て<>1234
setya<>27781
dituliskan<>15182
meli<>19719
quest<>29998
##alem<>5075
http<>9276
committee<>17842
##jelas<>30400
operasional<>8412
armstrong<>16193
##optimalkan<>21737
plato<>16257
poseidon<>24621
b2<>23457
ط<>246
hikmah<>21809
rencananya<>11244
gibraltar<>13061
denpasar<>12406
kering<>6437
##tul<>6489
aksara<>5830
konser<>4044
indikator<>14535
##ukau<>24221
mengasah<>31980
##day<>11675
layaknya<>12625
asalkan<>21345
leptotarsus<>26578
siklus<>8131
##uluskan<>23619
nats<>26748
sei<>13194
sih<>16391
kondensasi<>31883
##nen<>22476
##bian<>13369
##ylus<>18166
##ding<>4473
keas<>16521
vertikal<>11470
joh<>2897
##hee<>28579
120<>7342
nicolas<>17761
##andi<>4142
##itu<>22879
bunganya<>19951
zambia<>27200
hulu<>6677
bill<>5665
thatcher<>31280
460<>25900
mark<>3767
bertanggung<>5513
six<>15814
pras<>4748
berakar<>17306
ketiganya<>9566
dru<>25050
mengeb<>31237
blitz<>27146
duel<>21640
tasik<>12517
jae<>15067
##antasi<>23081
mempertimbangkan<>10312
bismarck<>24453
sere<>30696
arit<>21049
berla<>9822
##lo<>2976
##suya<>29817
bn<>15350
jupiter<>11390
1855<>19530
##ande<>19163
kantin<>26000
sewu<>30023
guard<>21566
jo<>3115
paulus<>6670
canberra<>24036
hidrolisis<>30455
mengecewakan<>25449
proliferasi<>31507
sampul<>10260
retor<>23269
oe<>29856
tw<>5148
herodotos<>25060
thebes<>21526
iraq<>27229
san<>3118
musica<>29244
donal<>22369
##atiga<>14725
##eno<>9306
##iz<>3125
prancis<>2504
perut<>8913
penanaman<>13767
pensil<>26684
##emuan<>3647
mad<>3174
ekstrem<>11582
##lee<>21482
khay<>22993
bravo<>27760
子<>711
nopember<>17392
kiriman<>29422
##ewar<>7783
1934<>9269
##engku<>15508
##ikes<>28599
atom<>4963
##ulaan<>9687
##bott<>19813
hendra<>22170
kebaikan<>12781
nair<>23063
mann<>18411
disematkan<>25518
titanium<>27354
sutris<>30376
##ikator<>12834
##uasi<>23997
##ipan<>17187
##に<>1338
##efisien<>16781
##emann<>18947
peg<>3811
kejahatan<>6153
menug<>17320
figh<>16530
aran<>3574
##hip<>7499
##marine<>26004
jadi<>3940
tau<>8296
kirgiz<>21077
134<>12678
monumental<>26666
125<>9352
lontong<>28220
##fe<>8357
百<>862
##bye<>29373
kuantum<>11309
medic<>22998
skenarionya<>20598
ditemb<>19853
##orm<>1945
berkuasa<>6145
##zzy<>27478
##ento<>10940
##andingkan<>10450
tangguh<>17014
menyeret<>26932
##urgi<>28863
shrek<>30774
segala<>4686
kebangs<>21776
##vy<>11942
kil<>4561
porno<>22356
mencurahkan<>25485
dikeluarkan<>5738
li<>2194
gabus<>26260
hitler<>8930
ridwan<>22869
shins<>30354
##ewarganegaraan<>8255
pengusiran<>20977
dendrobi<>6487
erg<>31880
°<>76
produksi<>3117
mengumpulkan<>6036
jantung<>6288
##qi<>11013
takhta<>6057
fungsional<>11941
146<>14609
sidik<>19336
akkadia<>26120
##ilihan<>3012
nie<>19503
yunus<>16972
##alak<>23783
1<>20
song<>5464
larva<>2407
tidung<>24530
sd<>4014
berwujud<>17169
wur<>13992
圖<>689
simpang<>13627
rampung<>22854
bersi<>3809
##ꦭ<>1395
akhir<>1974
界<>860
##idang<>2508
##uaian<>12179
bonus<>13788
terampil<>17220
##antunya<>17929
milk<>27344
##rach<>22740
##zz<>5382
eka<>19095
bertetangga<>26809
##ice<>3492
miliki<>14894
maritim<>11502
peternak<>16928
##omo<>3893
sno<>25564
senyum<>28765
maximus<>30582
sekuel<>8875
york<>3790
nip<>9848
matematis<>21148
hiz<>17908
tales<>26727
dagingnya<>28149
mariana<>26216
405<>30644
til<>14625
##inder<>7934
fus<>18944
##likasi<>4485
celebr<>22892
##ach<>2857
mengaitkan<>21319
gowa<>13576
konsentrasi<>7412
rhaphuma<>28916
menginj<>14375
雪<>958
tond<>23497
##ilikan<>7773
bahwasanya<>28688
gs<>20772
pendekatan<>6726
##rix<>11902
schmidt<>22121
后<>676
karib<>30929
##amatsu<>29829
hist<>22656
##ellow<>12351
32<>4787
##isen<>30618
presentasi<>17385
das<>6928
rabbi<>23122
akses<>5377
##enia<>4357
##que<>5290
aldehida<>29475
##pose<>31627
tog<>16164
coch<>30712
bina<>15127
##bas<>23912
pencabutan<>28429
queen<>11075
jasadnya<>29159
曲<>797
150<>6490
working<>31079
##intasan<>22155
bertakhta<>17107
menghormat<>22322
##よ<>1302
munchen<>15346
lukisannya<>22283
pembun<>5777
##itions<>28248
sej<>1760
##ゃ<>1314
##ina<>2007
edessa<>31257
hero<>10246
jinak<>30655
##isar<>2944
mengganti<>7737
toh<>13631
mumi<>26420
hideyoshi<>18094
roda<>6630
saja<>2957
tsu<>22395
karst<>29693
##nas<>6442
hutang<>16075
lain<>1716
##elajar<>17400
bat<>1970
moto<>17799
hbo<>18374
sumat<>3392
berurusan<>19560
kentucky<>24401
comic<>21492
keseharian<>25292
##adiksi<>30617
##osium<>31336
jokowi<>15071
urb<>21955
##ony<>7291
orn<>21047
ث<>234
information<>18403
irene<>19475
emeri<>22645
dylan<>21921
##amu<>9455
##ices<>14041
diasumsikan<>22332
adel<>21143
##remasi<>19878
hughes<>19555
hieroglif<>25061
bangs<>5122
lautnya<>24488
mangkun<>13909
nini<>21061
##rina<>16232
##aniaya<>23707
seto<>29566
car<>2708
sekitarnya<>5858
online<>7161
男<>859
belle<>19746
dilahirkan<>5971
tami<>26985
主<>608
##atis<>3736
blank<>29707
hav<>14114
panik<>17835
##nica<>24048
gaya<>3613
##irah<>8919
ira<>15209
##bup<>23534
peringatan<>6063
##cav<>31055
dee<>27792
hany<>7714
musi<>17702
terdiri<>2327
kilas<>31894
1859<>16204
fortun<>15859
terancam<>9719
haag<>15430
eksemplar<>15648
perbukitan<>10247
astragalus<>5155
ribu<>5128
malaysia<>3678
##intas<>19867
peraturan<>4674
lazimnya<>22118
tidurnya<>27703
mozambik<>22731
manifestasi<>22197
]<>36
tidaklah<>10382
welcome<>30252
southern<>17074
tentunya<>12055
kemakmuran<>14359
rentang<>9869
dioc<>24343
cell<>16618
membayar<>7051
p<>55
dipert<>7358
his<>4629
rhodes<>25255
striker<>20695
lingkaran<>7907
didapat<>6607
misalkan<>22187
beograd<>16424
mandal<>23547
berbicara<>5554
hiper<>10769
##raj<>10778
anastasia<>24397
##anyang<>27247
taman<>3589
berke<>12629
transparan<>14793
##tuti<>29345
##ア<>1308
belakangnya<>14744
pengap<>23916
men<>1504
divisi<>3872
##elajahan<>19103
stalin<>10529
palawija<>20482
÷<>93
rintangan<>18358
magic<>14868
eta<>24471
ross<>13288
senior<>5234
zheng<>16236
dipas<>8914
##eth<>4650
milton<>25964
true<>19748
mengga<>14229
natalie<>26333
##elahan<>10135
diamati<>12177
eksotis<>26327
chaos<>27751
dede<>28312
komoditas<>9715
bertabrakan<>22679
elam<>31544
don<>4792
defence<>28061
swadaya<>18134
terjangkau<>18150
rendah<>3429
##ler<>3566
raz<>26001
1700<>20991
##ო<>1320
1907<>11576
corey<>30793
##ᨔ<>1270
terbebas<>25427
##enheim<>29293
penerbitan<>8925
ditekan<>13871
voice<>15284
ironis<>22999
##coin<>26069
sag<>11302
berharga<>9693
nikita<>24822
perihal<>13180
orleans<>16246
##zation<>21575
傳<>634
kompetensi<>12482
##tarik<>6752
kolonisasi<>23949
menyediakan<>4590
menghampiri<>31646
relawan<>16787
gugusan<>19824
sekitaran<>22183
edin<>16692
anc<>5691
pertanian<>3606
kesimp<>12136
nasionalis<>9494
trunajaya<>28908
##rod<>7214
cetak<>9020
pom<>12252
##unjang<>13619
mikro<>7052
memunculkan<>13046
floyd<>26796
##otek<>14794
##anis<>21600
ceylon<>24751
1923<>9860
pembaptisan<>25153
bocor<>22677
ajarannya<>23803
sudarso<>30428
susah<>15822
kekaca<>12043
##lec<>23341
fondasi<>15654
##enda<>4987
श<>293
prov<>2266
##lek<>15865
berpengh<>16311
hes<>14980
album<>2252
resimen<>9764
chakra<>30963
faith<>23737
##rit<>4559
##ke<>4458
countdown<>20656
##icks<>24356
##nic<>25950
##atannya<>7456
dengar<>21307
kepatuhan<>29272
##elen<>26647
##road<>28936
valley<>15530
keunikan<>13919
kedung<>11007
eksekusi<>14210
##syah<>11248
icon<>29153
##amaannya<>27894
##acak<>11462
oval<>20014
fisika<>6637
geladak<>29649
saudi<>7985
pengukuran<>9627
sebatas<>22008
altern<>6018
satya<>13386
tetra<>28019
sim<>3083
sela<>14878
tulis<>3670
sheng<>20556
finn<>19218
##antara<>5071
peleton<>25394
berkisah<>13161
mecklenburg<>30199
hl<>24537
##ajak<>4441
tolong<>22959
原<>664
ilustrator<>28266
pamungkas<>30746
perekat<>28600
kejam<>13575
guang<>9770
1650<>31803
kirana<>23648
memengaruhi<>8642
##ancaran<>24730
kosmetik<>19909
mengandalkan<>11706
##uduki<>4881
kedua<>2076
fad<>7834
##gma<>14811
##ilh<>12770
meksiko<>5906
craw<>25587
##β<>1074
kah<>8884
1809<>23677
kemunculan<>12902
sehar<>6877
disetiap<>29163
##egal<>15204
mumbai<>13135
evening<>31554
##ethe<>21264
prosesor<>12606
kecemasan<>23541
##eku<>5698
300<>5181
shet<>28454
umumnya<>2532
##opak<>15415
budd<>3995
##att<>11726
phone<>18874
##ท<>1260
kulit<>4192
playback<>30434
feel<>31421
lake<>15642
##waktu<>6867
##trak<>21985
直<>866
kecaman<>26244
propinsi<>18187
memungut<>25701
terintegrasi<>13416
champa<>31489
dinilai<>9074
nugini<>12008
sass<>17711
bmw<>15689
##tober<>2716
berpac<>17834
##lu<>7539
##awaran<>13467
solusi<>9319
##imu<>12815
melayani<>5040
keim<>22687
##ancur<>6783
tiran<>18158
alba<>21844
pemogokan<>27532
pisang<>9807
talmud<>20527
##ト<>1159
hat<>5580
merampok<>27942
##elai<>9263
hae<>18585
##recht<>16409
kanak<>8057
##tista<>28052
bersamaan<>5300
##trial<>17997
gambarnya<>27349
##uny<>17229
simul<>22646
juni<>2628
##ondisemen<>14227
berpengalaman<>11404
licin<>23102
3g<>21862
##daya<>15756
horn<>15223
##iet<>2950
kuwait<>14830
manota<>30352
##apan<>2294
interaksi<>8527
##anjurkan<>10752
##aig<>13429
boat<>20622
##barkan<>8429
dimak<>6742
berbekal<>24670
rumusan<>21539
bersebelahan<>18583
##matius<>18060
berlindung<>18269
ү<>186
lilin<>14336
lomp<>22422
then<>26954
buta<>11751
kriminal<>10222
theatre<>14095
##tuturkan<>26022
notting<>24529
tuanya<>7807
ы<>177
football<>9978
direktor<>8876
pamannya<>11493
##ijk<>18024
pmi<>24136
identik<>10950
##ariyah<>25658
berpengaruh<>6209
dijatuhi<>17271
upper<>26790
message<>31576
jeda<>21628
233<>31616
berkelompok<>20164
##tensif<>11205
##ᅱ<>1406
##ꦩ<>1449
diajukan<>9765
bodi<>19632
し<>514
aspek<>5775
memaksakan<>24102
hayes<>29951
banua<>24713
##by<>4960
merekam<>8077
##etika<>7930
jacobs<>31835
1775<>30732
ᅪ<>416
##elusuri<>14333
proses<>2530
nop<>16131
helene<>26104
##doba<>21009
gyeong<>15681
sepur<>11317
melodi<>15211
berdurasi<>14996
sinop<>30105
##isha<>11890
eliz<>7742
kesempurnaan<>21507
း<>379
menunaikan<>22366
menutupi<>10775
plo<>28606
monte<>15839
##ege<>18133
##tuj<>3319
kita<>2557
97<>7989
ditjen<>27500
sasis<>18611
dinosaurus<>15045
berspekulasi<>23241
##hati<>25271
xaverius<>27364
torah<>29419
##ahankan<>4375
penggabungan<>9722
sue<>22102
2023<>25373
mendikbud<>26496
##vat<>23660
##sic<>10773
era<>4453
langka<>9759
berpindah<>6800
berangg<>8694
lingkungan<>3417
prad<>12782
##resentasikan<>13183
atasannya<>26780
##ampar<>16405
л<>161
berpeng<>8470
komering<>19587
##oul<>6804
permukaan<>3124
##jaja<>20645
##uarakan<>13964
##esis<>4634
##xa<>19776
ə<>107
semenjak<>6899
eri<>23400
##kana<>19467
assam<>20747
##akati<>10474
multinasional<>18985
##yono<>12603
商<>683
menempuh<>8370
##amater<>26486
mertua<>21843
ہ<>267
##asiat<>13837
suryo<>28005
kontemporer<>8768
goyang<>24263
keys<>18631
organisme<>7755
nikah<>20718
##thes<>19747
yoko<>26056
soerj<>29873
##nam<>3150
rich<>5190
boys<>13067
weda<>20116
stuttgart<>21138
##olitikum<>23845
combat<>25978
##imbau<>30158
##angkum<>30701
1996<>4504
bhikkhu<>18209
kalangan<>4470
mental<>9531
memasuki<>4660
##bert<>3656
##ey<>2939
than<>15083
##burger<>22997
jules<>23355
ventilasi<>24158
persis<>10956
##ominasi<>4587
pertunjukkan<>17125
annie<>21929
astr<>3813
hidrokarbon<>19628
telegram<>24433
numerik<>24497
obl<>13568
bosan<>26376
mengarungi<>25561
dibuatkan<>26880
bertengger<>27504
dih<>2386
between<>29091
teatrik<>25198
##2<>1022
senjatanya<>30937
johns<>20433
ungk<>10968
credit<>31555
##ා<>1333
saingan<>11426
moab<>29206
##alawan<>31231
mengal<>5428
setelah<>1753
menjangkau<>15131
志<>767
##fan<>7493
sukabumi<>13219
artic<>28869
melaporkan<>6593
op<>3294
##elion<>26615
##ontinental<>29047
eyd<>31925
memb<>1852
kompleks<>4615
##aph<>6642
koresh<>21609
##sit<>21740
##eller<>16254
fungi<>21814
pararaton<>26870
1911<>10618
1820<>21194
dakota<>21210
trade<>16182
juara<>3871
menghitung<>10954
##ayasa<>10849
##artney<>18720
##pha<>18067
##ɛ<>1361
antasari<>28591
cod<>12058
##entura<>22354
seniman<>6175
semboyan<>20996
falk<>22785
##22<>19017
bloom<>18413
##schild<>23264
##teen<>22944
##ariat<>8766
##ids<>18389
##ates<>7203
ψ<>149
##laus<>20922
rafi<>26708
negatif<>6879
##orak<>10428
kolonialisme<>22039
berkeliaran<>27445
##unjungan<>7420
rox<>23835
##き<>1363
100<>3169
pak<>3426
drag<>16040
isian<>28814
rhein<>15928
##formis<>30651
kazimierz<>23239
setinggi<>10269
mukosa<>31075
maulana<>14182
##epuhan<>31735
staatss<>25866
tol<>5213
bimbingan<>10847
kristian<>12823
otobiografi<>31812
suk<>2984
swedia<>5263
ond<>18817
makedonia<>8815
cerodontha<>20601
##elia<>9241
mozilla<>26630
##iko<>3633
center<>6073
pantulan<>31674
sb<>17474
語<>919
bakteri<>6528
pix<>16859
muf<>17146
##lig<>6753
cakar<>21258
terlalu<>4489
observasi<>19053
girlband<>24686
##adaban<>7736
siak<>15938
pajajaran<>18926
nav<>7238
emosional<>13954
##alus<>4665
##atria<>8547
tangkapan<>20528
diesel<>10887
cre<>8641
pembic<>13431
aland<>18633
diwilayah<>26138
joachim<>28055
##ert<>6535
##rh<>15993
##adewa<>13319
忠<>768
370<>24492
melejit<>26308
##iteria<>10383
voldemort<>20025
zulkifli<>29222
subang<>14346
ellen<>22160
purbakala<>18287
##uter<>3562
##ledore<>20593
perumpamaan<>19613
fach<>30331
promosi<>6739
ラ<>587
##ataka<>21111
depor<>29014
legislatif<>7568
jagung<>8636
wars<>10100
janj<>24538
##engsi<>16263
tha<>26098
##imasi<>17502
##ifu<>21270
##raksi<>28385
##ulatus<>17846
##otep<>20667
perker<>17617
meso<>23377
mengangkatnya<>20591
al<>1630
menjelma<>23387
the<>1873
kij<>20233
plum<>22942
utan<>31541
expos<>31882
##tima<>30613
seljuk<>22293
pier<>8855
prabu<>9204
dihid<>18854
coen<>27910
phant<>22433
hercules<>22734
ekologi<>15478
dimulailah<>28542
##awal<>6964
wajib<>7467
kebahag<>13625
impul<>25117
guyana<>21611
codex<>13548
##জ<>1451
murah<>8665
##change<>16395
simpul<>20748
mangalore<>26931
bertiup<>28270
##sual<>5362
menenggelamkan<>19678
wish<>26410
ville<>28593
lindung<>20533
merd<>6605
meskipun<>2529
tombak<>12245
##onstruksi<>11263
dicky<>27957
terbilang<>16030
teknologi<>3339
##rang<>13285
##lid<>21946
##ihatannya<>21398
hessen<>30678
##rin<>9202
bersabda<>30702
pujangga<>20930
##idih<>21658
peduli<>11592
書<>798
a320<>25376
##ebalan<>11411
javas<>27345
kerusakan<>2469
##adopsi<>5443
suj<>23887
arena<>8607
komune<>6164
makabe<>25197
##wu<>7507
mayat<>10966
sisik<>12677
dpp<>17718
amarah<>28762
##onen<>4809
andalas<>24487
setiawan<>23007
senyawa<>4806
thom<>5407
##agal<>27330
zakh<>28752
memantapkan<>31587
kerabatnya<>19593
उ<>272
tenaga<>4376
beirut<>22367
disalurkan<>23082
##temberg<>21852
hilangnya<>11690
##emuk<>17773
##gua<>26195
kon<>1726
##asut<>21169
##tualang<>28619
ক<>301
christine<>19875
liao<>26671
##yama<>13681
##tres<>30984
##tol<>11661
pustaka<>11202
berup<>9196
##ipur<>24514
transf<>29461
malah<>7117
akad<>29916
##ungg<>3046
koronavirus<>19556
minnesota<>21598
unta<>14498
sejauh<>7362
##grad<>28350
##urian<>15908
mengorbit<>9960
meri<>16156
oper<>2798
yin<>15139
##hire<>7975
menderita<>6649
mengutuk<>15011
武<>827
menyer<>4699
dile<>5375
##boy<>15515
josef<>20940
ordo<>1857
johan<>11951
terbiasa<>19502
neoempheria<>30736
seberat<>21973
google<>7400
foster<>20612
pembubaran<>16183
keberuntungan<>16846
kebaktian<>17993
mukh<>21645
mencabut<>15276
cut<>12438
pasaran<>11773
##ekah<>18753
hm<>17208
##uinya<>17989
##enal<>1845
##junkan<>28553
##isd<>12364
didalamnya<>16052
##ahbiskan<>12896
darius<>16507
##apannya<>20829
badar<>30363
ketenaran<>14355
##ekik<>25738
##anto<>4015
##omotif<>6095
##unda<>3934
hadapan<>9448
##fav<>24954
jib<>24901
##alanya<>9068
bervariasi<>7285
studio<>4580
##rc<>18483
angsur<>24142
kham<>25047
c4<>31997
##trop<>14697
mohammed<>22788
keberh<>7480
bercak<>16666
##5<>1021
case<>23399
species<>26711
ayo<>30202
kode<>4305
仙<>619
mengendalikan<>8151
kendaraan<>4383
ohio<>14386
bengkel<>15953
menghadang<>27734
resc<>28185
seed<>29687
##estr<>19524
menunjukkan<>3027
##phus<>29212
pigmen<>19712
desmond<>31664
dinonaktifkan<>22056
mengisahkan<>8964
terbit<>5884
##nie<>8603
comune<>21772
guci<>23812
indah<>5659
mary<>6659
belasan<>22992
victor<>6274
hari<>1994
kn<>5284
##point<>22468
perantauan<>23421
meminimalkan<>29728
##sib<>26995
tertentu<>3379
terasa<>10537
##jet<>16601
diagn<>12922
africa<>21444
educ<>14343
##edarkan<>16550
wo<>11166
##nifer<>16764
kuli<>28076
050<>29963
koramil<>30562
¡<>69
chorus<>27085
kerukunan<>26902
mrs<>20225
penggunaannya<>12163
hab<>3869
##ak<>1500
jac<>6584
kekalahan<>6702
##irs<>17992
##hira<>18546
dipahat<>31243
subuh<>24173
berlantai<>22327
##atik<>5105
burhanuddin<>30964
penyelidik<>25511
perbaikan<>7720
campaign<>27964
→<>477
health<>15336
progo<>23663
##icolor<>17376
##askan<>2541
desember<>2721
##buktikan<>6621
taj<>6282
stop<>14704
wester<>21572
menyamai<>23436
##tio<>27549
partisan<>23827
dae<>17108
義<>891
ditahan<>9442
menguc<>26097
regenerasi<>28833
##artem<>3838
bertanggungjawab<>19445
گ<>266
bomb<>5240
keponakan<>8979
woo<>13478
##rys<>7213
santai<>21202
mewak<>4551
beir<>22061
hukumnya<>21155
verbal<>24556
19<>1590
tot<>3468
romania<>28666
glory<>25585
together<>28788
kualitasnya<>30125
soviet<>3643
ditampilkan<>6309
komik<>6921
##tebrata<>17121
musiman<>20247
##illon<>19905
pennsylvania<>13648
kobe<>21470
karirnya<>22062
skenario<>7792
memo<>13533
mengant<>7750
##engserkan<>27444
nanti<>12294
terhitung<>12168
##andal<>31534
jari<>6549
maggie<>28099
injil<>5322
pendopo<>22205
tokoh<>2991
##iran<>2203
strategi<>6650
●<>487
negerinya<>19780
##yarat<>5504
kump<>6205
finansial<>11169
katak<>13940
##erba<>9763
ll<>9744
kontinu<>18675
tam<>3616
muller<>19639
kestabilan<>20971
₩<>470
metabolisme<>15234
pasundan<>20555
##abar<>10714
wine<>21694
002<>30942
l<>51
pertokoan<>22811
##ahara<>10408
warsawa<>16149
wolfram<>25558
##estone<>29645
neneknya<>15952
melod<>22294
##81<>29805
sesungguhnya<>8313
1877<>16705
stefanus<>27315
diberhentikan<>16874
depan<>3358
penerus<>8544
guillaume<>20359
flower<>23566
##bruck<>27158
siasat<>22464
chair<>22973
akhiran<>18251
lor<>7304
queens<>12732
sejuk<>15332
pendah<>7883
kencang<>20132
semu<>20320
melamar<>20508
##aa<>25457
##waru<>28012
kekayaannya<>24319
tomorrow<>27072
berkomentar<>15653
sebenarnya<>3876
bersimpati<>29617
##sl<>20178
##ress<>15889
##ass<>3140
##ade<>2913
kadar<>8404
##idupan<>29128
lionel<>26922
sent<>8306
ketiadaan<>18333
##omposisi<>12575
soet<>18780
##alau<>15375
cheong<>30446
permasalahan<>8309
mira<>21373
ji<>2566
##udi<>2824
bef<>20402
sou<>20086
##nologi<>14890
pembenahan<>31842
1944<>7280
penyangga<>16283
agric<>28658
ralph<>18467
pangan<>7316
gantung<>15717
##etis<>8300
temukan<>20002
penyembahan<>20267
meyakini<>10480
president<>19295
maharani<>19296
b0d3fb<>31029
##শ<>1409
pesaingnya<>28316
saud<>3041
##rer<>19759
##otif<>19760
sila<>23629
bals<>14113
rian<>26229
shim<>15024
dimana<>3329
波<>840
hyper<>15120
nuremberg<>30063
##thers<>13260
asumsi<>13643
##angg<>2147
##hari<>14573
##4<>1053
kaisar<>3146
namun<>1956
##elengg<>3539
je<>8149
1830<>14854
vital<>17170
ꦲ<>993
tercantum<>11933
meth<>14188
##ocar<>18330
belalang<>22939
sw<>2674
kab<>3072
mempercepat<>13438
aver<>21163
##ontarkan<>20052
##say<>22314
mamm<>23781
##34<>12534
mewajibkan<>18591
pratama<>20659
##thal<>21029
gunungkidul<>30106
dat<>2626
gastro<>30608
##alsuan<>27065
##iring<>3892
##ahulu<>11826
chlorophorus<>23208
yay<>4982
##ᅮ<>1051
##oris<>11770
takah<>22081
pendekar<>16476
membangkitkan<>12235
##fish<>22200
kadet<>23802
smea<>29757
##ht<>5882
putus<>10084
##osis<>4456
##insip<>5057
het<>12347
lili<>21372
nct<>29966
##baum<>31305
hok<>9154
gandar<>24257
korem<>16442
param<>7879
georgia<>7972
terkonsentrasi<>19408
pidato<>9537
diri<>2436
harus<>2412
hubungan<>2861
nila<>26313
konotasi<>27178
lisan<>11291
tengkorak<>14614
asetat<>17119
diisi<>8743
selandia<>7351
laur<>10350
kela<>11455
jawa<>2326
natsu<>31966
direp<>22429
tinta<>16576
qa<>17044
buleleng<>22463
wangs<>28925
##த<>1337
voli<>17389
meragukan<>18021
adver<>28336
memulai<>3172
gesekan<>22614
##endan<>30622
dot<>25064
memberantas<>28292
##ェ<>1139
jawi<>18048
ahl<>22888
dipergunakan<>8721
lisboa<>30803
christian<>8540
kunjungan<>7638
perkataan<>11154
proto<>8303
menyewa<>14608
report<>23031
lelakinya<>28890
days<>17215
homosek<>12576
madag<>14123
kud<>4553
kingdom<>2060
pengalamannya<>16420
backing<>31077
##reg<>5184
2006<>2947
academy<>5341
barbara<>16048
inc<>6427
banten<>6591
lai<>18049
programmer<>31197
lansia<>27712
selang<>12497
good<>7909
royce<>22036
##oli<>4930
computing<>31624
bukittinggi<>15037
diter<>2050
menyumbangkan<>12936
subd<>18313
##bing<>19812
crow<>20136
##imanya<>12206
menyembah<>17768
menanamkan<>20174
##alifahan<>14469
pengkajian<>20597
abh<>26872
ditaklukan<>21858
##utaran<>12620
koln<>23383
iring<>31876
bersih<>7585
lelaki<>6969
₹<>473
##ugikan<>13888
112<>12054
##zalez<>24227
sutan<>13889
tertulis<>7281
##olah<>2114
##nes<>5933
##enangi<>23556
hardcore<>22849
berbel<>16943
##ucon<>17513
badak<>14929
panel<>10530
paksa<>10584
##ukir<>12704
##ebob<>10265
sulung<>8659
taiwan<>5768
delima<>30570
konv<>5092
penghakiman<>25075
amos<>25353
sesudahnya<>16554
hadiah<>5866
dised<>21186
##echus<>21420
latih<>23091
kompilasi<>10324
sendirinya<>18529
interim<>29082
whe<>15311
##stein<>13700
retri<>28899
tiongkok<>2844
##jah<>7286
1839<>21018
mon<>2746
menyesal<>24832
emped<>25141
phantom<>23577
hul<>14117
##ibat<>2596
sony<>8854
keilm<>16430
##ecuali<>19492
hasan<>7409
##omata<>12614
##lem<>13956
menyelidiki<>11676
##xon<>11629
planc<>24778
davidson<>31488
298<>31887
橋<>823
menges<>10498
analy<>29098
game<>5467
##impin<>2141
keringat<>27017
piring<>15946
sumbangsih<>30816
untai<>29561
panglima<>6105
umpan<>14194
santo<>5434
leicester<>22227
kapten<>6108
##oci<>6697
##tensi<>7781
human<>9603
##lasi<>13139
pengoper<>15898
##jer<>24871
diproklam<>23372
239<>28574
keep<>25389
kompatibel<>21425
mami<>31171
bet<>4307
konfr<>18027
##eee<>29832
信<>632
tempurung<>31009
rentetan<>30661
ahn<>26564
irish<>31362
pengabdiannya<>28794
menjelajahi<>16626
nexus<>29729
statuta<>25003
##acu<>20652
##ational<>3476
khor<>27737
billy<>12492
vs<>13836
bos<>4847
##udin<>8567
*<>13
bann<>24899
u<>60
broadcast<>25717
shooting<>30733
beralam<>14865
##etr<>17282
sas<>3302
pengambil<>19850
syaikh<>11695
em<>2189
pw<>24340
late<>24818
batalion<>17917
seg<>3112
instrumental<>19485
##osisikan<>21130
hierog<>23070
keterbukaan<>27983
##cus<>7016
##amoto<>11894
dides<>7817
biner<>18106
##zoikum<>25931
alexandre<>28212
url<>14692
singhasari<>28538
##angkut<>5992
##yaw<>11006
ekspor<>8818
otomatis<>7167
standard<>9909
andrea<>18271
富<>727
globalisasi<>15973
von<>7099
hoo<>29656
abim<>24351
灣<>848
gelarnya<>17705
kebohongan<>26164
##epak<>27044
komn<>23412
memaafkan<>30533
jaya<>5283
farida<>30322
##arga<>8708
##acea<>25195
penataran<>31992
ᴡ<>446
##jang<>11836
merapi<>18160
bulb<>5553
sym<>13886
knot<>22867
orle<>15976
kesetiaannya<>31494
bernuansa<>19391
indianapolis<>23451
melempar<>18017
##irip<>3734
##ball<>7681
dahi<>25624
peluru<>7724
agama<>2664
perusahaan<>2316
lempung<>30442
ajaran<>4737
ariel<>18460
bala<>9530
kelvin<>27416
diikuti<>4684
##onesia<>13917
##liam<>4313
ungaran<>31343
mungkin<>2904
banu<>24789
samping<>5226
hank<>16708
kerind<>30767
windows<>5841
sopir<>16580
entertain<>5217
##fc<>10879
grafis<>10886
ditump<>22303
sabda<>23594
##ing<>1529
sop<>7464
##lie<>8122
##itel<>21719
paspor<>14992
##mar<>4853
wewenang<>10764
chateau<>28158
apg<>24635
nep<>4972
##ibarkan<>19721
pard<>27181
##ᆫ<>1190
buzz<>27143
rimba<>21619
common<>16834
##sky<>8684
klungkung<>24584
menggugat<>25326
theme<>28815
heming<>26381
##श<>1371
diatas<>9194
fay<>22047
rekonsiliasi<>20956
pikirannya<>22143
##kip<>27988
bertu<>9456
suleiman<>25867
cold<>20675
##ebor<>2561
hind<>3261
ruf<>13266
terbarunya<>21595
##apor<>4330
paya<>20258
yuri<>19054
herzegovina<>13970
tertidur<>21751
penggemarnya<>22625
muhammad<>3942
syam<>10283
##а<>1061
mae<>19935
efrat<>26171
kusuma<>19858
ampuh<>27561
gender<>9411
pagaruyung<>21023
dam<>5806
##nano<>27102
patokan<>31057
相<>867
pengembang<>9172
pengelolaan<>7653
drona<>28135
##danya<>23816
##jaga<>5404
##ahag<>12483
##enden<>28179
zamb<>21478
supremasi<>22969
##witan<>26642
र<>290
##asciata<>27929
glam<>24501
heb<>15533
##gaya<>27841
##ه<>1179
##anyol<>3515
acmae<>11784
##ubahan<>3222
justin<>15461
ami<>14991
demang<>17522
##lane<>19925
faust<>30496
sulfat<>13803
keabs<>28113
raden<>5764
memperb<>11585
hou<>24472
##uci<>10184
gra<>11008
karawang<>12826
dicer<>25581
riley<>25651
creative<>22311
##ikkonen<>28072
kedaton<>28660
##ј<>1125
26<>3380
next<>16691
##mata<>20236
14<>2472
kedelapan<>9917
manuel<>15190
aplikasi<>4705
kincir<>25983
lesi<>30147
merakit<>30981
padalarang<>31650
vokal<>5547
menampung<>8859
##agnetik<>15554
magnesium<>16929
##eret<>19974
narator<>25019
geun<>25966
aestetik<>27446
universal<>7786
building<>18452
kekeluargaan<>23526
amanat<>11389
angkor<>26877
kalim<>3608
235<>19688
graha<>22859
henokh<>31892
mengusahakan<>25422
hardware<>27313
bonif<>24956
asterisme<>25995
##entius<>23709
gerbong<>13732
##ng<>9563
putin<>23330
mantan<>3651
firma<>16655
##otte<>27246
caesar<>13309
persija<>20613
estonia<>11094
referensi<>8018
kuasa<>9896
##antis<>8789
lif<>6478
keker<>5534
liverpool<>10592
bertuliskan<>16948
##etil<>19996
bahagia<>11719
pemus<>18119
boyolali<>18172
bea<>7775
pan<>2196
minimum<>13273
##cin<>27081
menggarap<>19272
wabah<>11058
michi<>12377
金<>939
pemes<>21793
saif<>22552
arahan<>13196
based<>23181
setempat<>4868
entertainment<>5286
peer<>25577
berjumpa<>22431
##ungkinkan<>4161
bawa<>17289
##ligh<>19932
hindustan<>30893
sr<>6656
##ada<>1524
tennes<>19358
ann<>7894
ا<>230
by<>5536
د<>238
eugene<>17667
##antaraan<>21069
parma<>20919
##ffle<>26966
##jem<>5508
pasir<>6040
tomatoes<>16198
##tar<>1986
lumayan<>19907
##ـ<>1277
pare<>21411
beni<>26208
oed<>28119
ketegangan<>11488
##iness<>10556
aa<>15905
balita<>25588
diskr<>11990
##qq<>25459
isteri<>17403
diga<>14748
manif<>13715
##cm<>23049
penguburan<>24299
percabangan<>19135
eve<>26189
merch<>26283
sman<>7441
berhadapan<>10208
##load<>13852
ナ<>571
##amban<>20389
ekonom<>9226
membenci<>15356
memperlakukan<>16969
alicia<>29632
##ffer<>26151
pencinta<>27425
dijabat<>11964
mengkoordinasikan<>27303
nicole<>25973
theo<>26128
bercampur<>15798
darah<>4262
artem<>20516
bodhis<>24038
##intai<>7766
karet<>8835
ℓ<>475
rejo<>27006
nv<>24803
##etat<>28128
zakharia<>31917
chu<>10616
elizabeth<>7988
##arong<>28803
dinamakan<>5625
kehidupannya<>12688
##fam<>21374
parah<>6970
unter<>26734
rahmat<>13387
berkampanye<>24144
kompeten<>25438
fes<>3750
##agaman<>20833
ks<>8971
feminis<>19955
sutradara<>4728
wow<>31930
butiran<>21207
menampilkan<>3844
laguna<>19657
##paskan<>12431
periz<>29089
kesepian<>26571
pertamina<>17668
駅<>971
versi<>2903
pertempuran<>3129
corps<>21773
±<>77
##edi<>3099
suv<>20669
##ek<>1551
bijaksana<>16467
節<>884
##tenstein<>20490
russia<>21081
tanggung<>7795
jaw<>15793
dihadapan<>29307
segenap<>18913
ranjang<>29489
susulan<>30577
disimpan<>7059
ditaklukkan<>14530
inkub<>30321
##zier<>31888
rhythm<>24235
pamp<>23077
titu<>17814
suite<>21290
hakikat<>15753
estim<>28412
saks<>17957
honey<>22117
pelopor<>12081
gros<>16733
little<>10427
##emik<>10448
##adafi<>26154
naya<>27276
money<>17996
diketemukan<>27629
bps<>17053
kamandanu<>31140
hamm<>13817
kesal<>14749
hum<>6667
septuag<>16364
##castle<>18170
##ع<>1167
138<>12538
sanak<>23414
pengel<>6602
prosa<>18324
##rique<>25102
cermat<>23257
ratu<>4055
sepertiga<>15152
こ<>512
tes<>6424
sebulan<>12188
kuadrat<>24928
mekanisme<>7826
##mann<>7671
keluarnya<>16965
terpadat<>19545
ilah<>10127
guadal<>26184
praja<>17454
##ampung<>4512
laku<>12379
active<>30926
valle<>30176
и<>159
chic<>7999
menerobos<>21803
turun<>4555
sing<>2795
libert<>14403
aparat<>16484
keluarga<>2565
tuas<>20794
##count<>20417
aldi<>30340
person<>10753
sog<>22260
##um<>1532
##embar<>22606
selasa<>12915
et<>3554
mustah<>20304
gmina<>31496
pecahan<>3439
transportasi<>5475
tiba<>3673
kuning<>5261
cher<>11547
imperialisme<>23810
##eonya<>29660
aba<>16930
alfonso<>14913
##ospace<>20654
momentum<>16027
##tina<>23246
##ingkir<>15354
penangan<>11595
claudia<>30128
##yll<>12311
hangzhou<>30876
##itsch<>26423
##hal<>10733
bla<>14071
simfoni<>23042
indeks<>8756
praet<>31416
baitul<>27033
montreal<>17473
awalnya<>3055
##light<>11779
tercemar<>29765
ი<>384
##turkan<>8227
munir<>27191
xie<>27885
kedaulatan<>9827
oksidasi<>13313
deras<>17254
disembah<>24028
matematika<>6616
sounds<>30004
badai<>8611
##ulin<>13256
##aksis<>23278
##zy<>9766
##ulosa<>18954
niatnya<>21017
##enak<>23406
tarik<>7923
semb<>4461
seberang<>10245
##aric<>31039
##atifikasi<>13847
piala<>3405
segar<>10562
##entrian<>19332
##orne<>31938
perhimpunan<>12260
fitur<>4801
petrus<>9367
menumpas<>20439
%<>9
relevan<>14290
##endah<>3209
tapan<>13138
sinaga<>30323
stars<>17436
uighur<>24191
##sesan<>6623
neh<>17580
prestisius<>29955
##ᨒ<>1393
kontraknya<>20416
dilanjutkan<>7081
obatan<>10021
banteng<>16413
mi<>4323
tae<>12524
##tega<>16673
##ophila<>20465
derek<>21129
sedem<>11720
intensitas<>14527
##ord<>2499
pekon<>22115
##buwono<>22457
ot<>3595
mitokondria<>23338
indoor<>27754
squ<>11610
kamboja<>9081
multi<>7047
pack<>15442
linkin<>26620
mensponsori<>27233
##omendasikan<>12616
telecom<>22325
mengorganisir<>22688
##0<>1065
sikap<>6190
beremigrasi<>27118
##utri<>18793
mengawasi<>10315
##edanan<>26774
##خ<>1215
##ukus<>23939
putra<>2879
##inf<>10373
gibb<>28731
pimpin<>20872
kelancaran<>27995
menyangkal<>17324
perkusi<>22011
##erapannya<>31792
##ucian<>14425
epis<>3316
dibawa<>5254
nasi<>6014
vokalis<>8604
##ante<>11856
babat<>26091
berkon<>19491
anark<>13409
##25<>9391
##ague<>6982
seminari<>12912
pot<>3448
rover<>30465
gall<>10016
buwono<>25429
##und<>2014
national<>5433
kendati<>13447
##ibar<>15218
kantor<>3564
politbiro<>28477
buil<>15025
augus<>10173
missis<>20353
paskhas<>31950
chan<>9417
permuk<>2966
pangk<>5273
phu<>29709
##gama<>20685
##arium<>15907
twice<>25786
international<>4548
smash<>26984
nit<>6428
remp<>8243
sepeda<>7365
##onsori<>26163
tagihan<>30658
##oem<>28987
##ktop<>17356
##ས<>1330
hd<>12941
terk<>2215
kental<>13114
##zzo<>18386
mh<>12921
dalem<>12087
produktivitas<>16817
diproklamasikan<>29847
penahbisan<>29546
kariernya<>5187
who<>9619
guan<>13472
biologi<>8190
shall<>27793
##east<>29860
岳<>741
berba<>2174
khawatir<>10442
##estorasi<>26893
terbelah<>22666
batasan<>11819
nikola<>29527
cili<>23190
clock<>31261
##ᅣ<>1305
##aton<>5723
swiss<>5785
osiris<>24291
##impinannya<>13645
dudukan<>31515
108<>11418
gum<>11683
persepsi<>14870
##akim<>31657
bunga<>3684
village<>18206
prep<>20577
antik<>13599
kebon<>15456
holstein<>24457
pasaman<>24602
afghanistan<>13464
195<>2458
ekspedisi<>7143
##oba<>3365
melukiskan<>27415
jian<>15194
houston<>16028
wisat<>8177
amanda<>18311
keper<>4037
55<>6015
##enium<>13336
##utus<>2524
terku<>16714
liz<>31125
pementasan<>14606
vittor<>27108
gunung<>2968
theat<>13084
butler<>22494
homer<>22762
##ør<>25699
##acara<>4128
timbul<>7457
philip<>6570
##rot<>10544
inangnya<>21460
##go<>3988
##ran<>4596
karak<>22964
regional<>6559
keramaian<>25072
manufac<>25089
bruder<>27137
kesedia<>29405
fit<>8466
##integ<>8814
##hana<>4358
kesedihan<>19261
bertingkat<>15698
##হ<>1245
##upas<>24275
thriller<>14096
2024<>17301
menstr<>29295
tenggorokan<>19175
jeddah<>27716
pengaturan<>8938
##odong<>29504
fib<>17186
vinc<>10829
kemungkinan<>4024
altar<>14411
mengas<>10761
rantau<>16583
karlsruh<>29799
##adaannya<>10981
##etas<>8297
##iaannya<>30024
aurel<>31568
topik<>8521
islamiyah<>22107
##stone<>25985
##ulon<>30761
marri<>26060
71<>11243
udang<>12939
##ꦥ<>1303
ketuanya<>26824
##odelkan<>30136
##egradasi<>17611
bejana<>23925
bertahap<>9657
merob<>25099
akreditasi<>13535
##than<>17188
penyik<>18180
kini<>3244
dideportasi<>26557
dilatarbelakangi<>30287
kelas<>1878
tuan<>4986
telak<>21636
dit<>1818
turkmenistan<>22147
##idenan<>9571
walik<>23513
laun<>13907
serum<>23858
lampau<>13671
##sign<>24772
1798<>28583
##andan<>17084
##kim<>25986
##yya<>26596
minoritas<>9730
menyokong<>27333
luo<>28720
biasanya<>1897
##tagon<>30066
##etton<>26685
miliar<>5098
usianya<>11435
white<>9048
aug<>7288
ordin<>18794
cyperus<>9911
1962<>6537
##gne<>17499
spears<>24907
pasteur<>30351
mani<>22839
buku<>2630
cost<>20792
insentif<>25361
disimpulkan<>17743
ptolema<>26712
##pr<>2895
kesepuluh<>13999
kwee<>24184
##adipura<>30910
##ulsi<>21046
team<>8539
ibunya<>4331
panggung<>5315
iwan<>15944
god<>7069
kho<>23219
skiz<>25287
valensi<>26524
##elling<>19945
յ<>195
kepat<>20316
indische<>17233
bergabung<>2988
eksek<>5416
##tinggi<>3660
##adaptasi<>7485
salzburg<>24179
kakandanya<>27199
esa<>14577
spasial<>26826
sappor<>25207
yurisdiksi<>13789
##ikir<>5163
bernomor<>20216
eagle<>21304
menonjolkan<>25481
store<>14431
##etnis<>23822
##adai<>6250
aguilera<>29167
spac<>21190
##esu<>7083
minangka<>7404
ilustrasi<>14138
##ᅵ<>1255
340<>21466
berdaun<>26034
ishak<>18370
narkotika<>24743
pengungsian<>27332
surel<>27466
transn<>28613
if<>11528
dibiarkan<>14223
verd<>15297
inframerah<>18713
inap<>31454
makamnya<>17587
##tive<>10401
zepp<>24372
foot<>9022
##alikan<>21845
proper<>22296
##alamannya<>11070
##hausen<>19802
supply<>31218
maha<>8996
##aitu<>1965
everything<>29666
diletak<>9738
berpuncak<>30563
louis<>5733
demetri<>24915
pengantar<>12808
indycar<>27245
##rust<>27476
##ब<>1294
pankreas<>31508
ruther<>31085
dw<>9575
bertulis<>15039
perwakilan<>4703
pdip<>23157
panjang<>2153
was<>5865
pirang<>28837
##found<>30381
indulgensi<>27762
##genik<>31141
cindy<>22441
rey<>13298
kaledonia<>25963
lept<>12633
cerat<>25996
tekstur<>15265
penghancur<>26839
chel<>9014
##bilitas<>12526
dumbledore<>20663
zakaria<>30074
mahabhar<>15988
서<>26639
kedew<>29868
bon<>4673
febr<>2945
##una<>4146
gan<>8806
##rough<>17626
observatorium<>15716
long<>5483
sibol<>28785
leste<>11875
marvel<>13382
berlangsungnya<>19578
erit<>25896
pasai<>24349
##juangkan<>13020
##ர<>1149
##ipun<>2519
##quez<>20636
43<>6506
ъ<>176
deret<>15664
bekerjasama<>10822
##ogo<>7572
dijaga<>14779
##ち<>1186
gener<>8390
tgl<>30974
mengap<>7532
##aduan<>12211
grumman<>30387
##amah<>5809
ketinggalan<>20920
romansh<>31748
berpasangan<>10903
menyelam<>20109
catalunya<>18983
prospek<>21305
##osl<>14047
pij<>16660
##ingham<>21432
aras<>29812
##ah<>1492
##sihan<>10601
##sk<>4964
chin<>10541
##ikin<>18999
keseimbangan<>11210
##atas<>3538
##el<>1505
kelapa<>6253
mart<>12316
adolf<>13056
っ<>520
##aft<>6364
teologi<>7442
arktik<>18062
yuko<>31524
##ayangan<>6842
##ecil<>8304
buruk<>5576
##epend<>5460
menyamar<>13451
dipesan<>21222
##asis<>2641
luca<>27612
aish<>29907
区<>657
tanggapan<>9831
mengam<>8244
gymn<>28426
ane<>26023
reno<>21881
bertani<>15484
evan<>20418
ghar<>31222
bizantin<>21707
rik<>26149
kast<>13244
mengurus<>11740
##rofesi<>11747
diaransemen<>30212
menggunakannya<>12558
140<>9837
heroik<>25689
ditemukannya<>16844
##eer<>19016
menghalangi<>12933
mitok<>22546
railway<>21038
siprus<>11098
##ima<>1949
babakan<>19376
mard<>23299
heian<>28827
tjo<>23968
##lang<>9443
ali<>3996
jambi<>8888
tikal<>27016
event<>12601
##osi<>2785
kebangkitan<>8871
flip<>30641
kriteria<>10482
bertarif<>29703
##fer<>2885
syi<>15784
red<>4527
##uluk<>18310
##ph<>3679
kontempor<>8734
parodi<>21683
artemis<>25380
depannya<>14836
##ouw<>13044
##tografi<>21263
##र<>1183
##pre<>25772
luoyang<>29884
##ness<>13552
bertambah<>7040
lucas<>16805
1982<>5675
danar<>31529
##less<>13296
##asihi<>24944
ch<>1776
profesional<>4667
軍<>925
suara<>2881
asoka<>28760
beristirahat<>14335
keliru<>15960
wafat<>5901
pera<>5405
##odern<>22815
kenampakan<>30423
alkena<>29314
##utan<>2182
kudus<>5914
tara<>11181
bahkan<>2921
maka<>2537
berh<>2096
xer<>26421
alt<>20618
sekresi<>25351
ellie<>31052
##ன<>1146
keith<>20046
peringkat<>4007
forces<>27800
kazakhstan<>14191
kanaan<>14545
##gam<>8688
152<>10053
##raya<>19138
451<>31818
dibunuh<>6227
darurat<>8445
pembatas<>19526
##and<>1585
kecuali<>4817
pengkhotbah<>27066
ungkapan<>11962
hello<>16791
zeus<>14571
თ<>383
##umoto<>25347
##band<>10194
freedom<>19084
kebebasan<>6555
##ahap<>8487
nathan<>14939
superstar<>28027
chen<>8301
那<>929
##atan<>1594
##odadi<>16322
ョ<>586
##ompokan<>19889
72<>7261
rasi<>5472
didasarkan<>5920
##den<>4841
##astis<>10798
prasarana<>11281
cycl<>26715
##yaran<>9821
pencari<>12152
##born<>26989
1851<>20009
liburan<>12924
pelop<>10405
suhu<>4859
##т<>1064
kematangan<>30095
##itab<>3937
##trocera<>20435
bab<>2874
mandala<>15619
penet<>20985
direc<>26202
ukuran<>4254
bertugas<>5123
##tenham<>18199
clara<>21614
##ilaku<>5772
ishaq<>24536
hispan<>26887
kehabisan<>20784
roti<>6705
kontrasepsi<>23419
ம<>327
sm<>2161
asterisma<>24980
1814<>20141
mengeks<>7698
butuh<>15781
##ワ<>1429
##amid<>22745
pondasi<>25970
dijelaskan<>8237
sef<>28494
hiburan<>6622
horisontal<>26939
penganiayaan<>15328
canthon<>27822
joseph<>6849
bantul<>16194
penistaan<>29059
ahmed<>16000
ngada<>28474
menghilangkan<>8851
jahat<>8267
cook<>14468
script<>26963
neptun<>6687
terkontaminasi<>27696
##tulis<>31723
338<>27966
kolaborasi<>10152
##arikan<>4130
##atuhan<>13128
kehar<>20939
journ<>12412
bishop<>20838
polres<>26320
##oh<>1778
pemeriksaan<>8968
pendakian<>19676
keh<>2325
pertambahan<>23111
##din<>4202
menem<>2516
##incian<>10572
perdu<>28667
partners<>21348
##fol<>13810
barok<>22510
##awn<>30839
##ン<>1140
sun<>2272
dinding<>5799
maros<>16336
学<>714
##ith<>3467
brigh<>30065
##ena<>1698
ont<>14974
ah<>2762
koalisi<>8467
orth<>18932
berkeinginan<>22042
aspal<>19624
##zzi<>20776
digunakannya<>23378
stere<>31904
##eum<>3536
dituturkan<>11737
joon<>19409
##eyan<>23350
##orf<>8555
penand<>13301
kebesaran<>16964
agraris<>27112
##tsky<>27912
tampak<>5436
bertentangan<>9418
ters<>2821
associates<>26665
1740<>28295
kolera<>29086
menip<>17398
sentral<>9095
mengepung<>12661
khasiat<>30231
サ<>560
sed<>1928
besar<>1795
menyeberangi<>13969
matanya<>14352
kuc<>23947
kashi<>30107
1919<>9235
ozon<>18839
##baya<>4004
##ihkan<>5963
hent<>21759
##aksa<>3932
nenek<>6411
##asaki<>12031
antigon<>31618
leonardo<>21494
pengampunan<>18966
kha<>21050
berpandangan<>28566
ম<>310
##occus<>23792
kf<>28648
mengakuisisi<>13220
ieyasu<>21390
151<>24947
temanggung<>16761
halal<>22300
610<>25726
kir<>5797
neu<>30416
doug<>10029
##itif<>4056
##etsu<>19654
bertekanan<>21581
##odo<>7284
jie<>25546
##achi<>12265
crus<>31481
##esarkan<>7227
##otida<>22713
dahan<>25265
bersama<>2066
##hika<>26730
fischer<>28056
klaim<>8281
##aki<>2170
olivier<>28782
sempat<>3598
pasca<>6798
cis<>13915
kerasnya<>27098
baseball<>23283
identitas<>6460
menghalau<>26031
fluida<>16971
×<>89
muasal<>20978
berpr<>16524
berselis<>20539
##etrik<>31856
##romosikan<>5940
##や<>1436
kedah<>20378
##46<>19403
menantunya<>23250
##ending<>20576
##urah<>8970
konstruktor<>25827
itb<>12204
##awasan<>23972
##iling<>4148
pantura<>24380
keingin<>14549
myrmara<>24496
course<>26577
alberta<>29610
kemarin<>31733
##ia<>1534
animalia<>2061
##yli<>5499
cafe<>18371
neph<>18859
argo<>19763
##c<>1026
sabu<>22990
##afal<>28241
kesukaan<>31012
cole<>22302
mccarthy<>28071
makkah<>18149
1920an<>28310
tah<>1579
##urus<>3891
pup<>8880
##antulkan<>24833
trac<>25573
akmil<>28501
zomb<>21165
kuil<>4944
kaus<>17599
gambut<>20308
##case<>26021
aladdin<>30765
##asw<>20537
chance<>27595
cil<>7380
##oidea<>28345
回<>685
story<>10857
##itzer<>14362
seand<>23821
چ<>262
laju<>9453
luasnya<>12487
replikasi<>28517
carol<>8941
##gawa<>9994
##otan<>8792
kru<>8625
##iformis<>22620
aqua<>25118
##eti<>8742
telah<>1720
hengkang<>19881
kesem<>14432
dekret<>15721
kreativitas<>16045
rocket<>23515
padal<>29586
ェ<>552
melalui<>2175
##ayer<>26686
menawarkan<>5555
naskahnya<>18316
rencana<>4215
never<>16365
menginter<>24792
nut<>23107
eug<>6402
keabsahan<>31290
timurnya<>30040
##lines<>7862
cali<>21476
mengundurkan<>6770
merk<>11735
alien<>14568
daendels<>26541
un<>1553
membentang<>8805
claire<>21019
hussein<>18402
liber<>6573
dio<>23603
kucing<>5669
simbolis<>18227
xia<>13434
##ker<>5381
kedekatan<>18056
bersikap<>14142
##ouin<>17559
sanalah<>30863
##85<>18066
xv<>12871
##eston<>26295
##olas<>9323
##tov<>27326
分<>648
ζ<>131
##imbangi<>19952
slamet<>13571
##idd<>21949
meyer<>25161
##enggel<>14585
##buster<>31565
hawaii<>9297
張<>761
brid<>18797
##ipes<>14345
wings<>22984
jamil<>31403
##ל<>1039
less<>24403
company<>6699
hasanuddin<>16579
beladiri<>19899
##ی<>1110
may<>3202
raikkonen<>28144
puc<>8719
meninggalkan<>3601
##sualitas<>13476
siberia<>15315
anand<>22397
konkret<>23472
big<>7446
from<>8480
kakak<>6610
1620<>31611
bpd<>21590
peristirahatan<>22980
bekal<>20561
##iai<>10147
nich<>11278
endapan<>16646
##isap<>18006
wimbledon<>24689
dilemparkan<>24733
kearifan<>27120
anglo<>15526
hipok<>24787
##wet<>28554
being<>24951
selain<>2248
johann<>12730
rajab<>28835
empire<>17658
##ryn<>28518
membawakan<>8498
bej<>30858
##afi<>18041
rika<>17158
ormas<>27414
boeing<>8023
kaos<>25810
pole<>20429
gates<>22905
penyutradaraan<>18871
endemik<>13661
iter<>28380
membangun<>3690
implementasi<>14279
parasit<>12446
yustin<>21232
##า<>1115
halichondria<>23126
mendo<>17991
##200<>24974
kewira<>25593
grade<>31326
aqui<>22587
pelat<>4001
terap<>22074
mendasarkan<>26690
ritual<>6747
ditolak<>8478
##elah<>1605
##aksanaan<>5592
triple<>19109
ikut<>3821
fior<>21641
up<>2518
96<>8162
cowok<>24656
vitamin<>11165
raksasa<>6931
##ancapkan<>26833
kemarau<>12786
belukar<>24414
puisinya<>19623
pen<>1573
loki<>29876
merkurius<>30192
galur<>24359
membawa<>3317
hkbp<>26936
melint<>6508
##ondri<>30711
##inati<>17172
kedaul<>9459
nba<>10874
##likan<>10262
gary<>15327
invent<>20818
satell<>21705
br<>1950
##embun<>6161
##う<>1394
tengk<>11851
magazen<>30958
##idrat<>15866
its<>14369
taoisme<>23489
##ะ<>1259
ucapan<>11564
atlantis<>27621
美<>890
antonio<>11093
kill<>13137
terbi<>19097
proposisi<>27150
##ital<>4069
##oord<>12556
berb<>1917
museum<>3822
samb<>6547
##anta<>4797
page<>17869
mulia<>8692
arang<>17847
lob<>12768
diwakilkan<>30183
tawa<>20284
##gol<>15435
emas<>4166
menjelajah<>13768
##imbolkan<>27119
##apu<>26994
##arat<>5085
kelemb<>27684
knight<>15884
pus<>2312
strata<>16786
karakternya<>17388
soeb<>20728
berlangganan<>21318
berkecimpung<>23745
##dowoso<>24612
##empurnakan<>13614
madinah<>12074
kemiliter<>23079
##rokimia<>27571
subs<>5726
diabadikan<>15630
$<>8
natrium<>10381
##zhong<>26135
menud<>10365
pemerintahan<>2461
##baga<>3237
keilmuan<>16459
rita<>18514
diapit<>21213
lambang<>5792
ditur<>8046
menyampaikan<>7352
soek<>28002
gibral<>13014
bua<>12402
penemb<>10081
spektakuler<>23992
176<>9598
lipat<>11259
berteman<>13989
##har<>3852
penuturan<>27975
lahore<>29515
brien<>31569
dif<>4059
salat<>9959
berdirilah<>28403
burgun<>24220
diuraikan<>22828
dermawan<>28470
kasino<>17447
##alisi<>8185
fighter<>24746
cec<>15351
##doyo<>30700
bekas<>4821
dihilangkan<>14584
時<>795
##lanjut<>25343
menikahi<>6128
##ulla<>31179
pamandanya<>26375
##per<>1780
##asitas<>5348
memotret<>25608
artinya<>4850
novel<>3724
##i<>1012
800<>7559
olivia<>19693
penanggulangan<>20358
sap<>6330
garuda<>11139
surga<>8406
berujung<>11063
##tisan<>19904
kumar<>14042
##ebol<>23326
disusun<>7108
ikh<>13480
remake<>17586
neal<>24089
##atang<>4319
iman<>6812
angi<>23857
iz<>5661
sofyan<>26848
audio<>9801
romance<>27220
htm<>14818
mangk<>7319
subfam<>31137
sejong<>31605
berita<>4432
##arai<>6231
cucurbit<>11806
zoologi<>23359
gatot<>16565
kertos<>29123
##esus<>18612
benteng<>4785
dipenggal<>27460
##opi<>15322
laban<>27267
martabat<>19990
disimp<>16856
buh<>28646
yudha<>18836
##acarita<>20123
freud<>23960
mencegahnya<>30725
epilepsi<>25722
wash<>6686
every<>21515
niat<>12758
##ologia<>30364
eter<>23851
walikota<>27491
##vana<>21110
cordoba<>29415
mengelilingi<>10085
krabs<>22521
ars<>3950
mineral<>7444
victory<>29472
perempuan<>2884
pythagoras<>25090
perkuliahan<>17918
hearts<>25336
gosip<>27235
fall<>12118
spontan<>16383
memba<>2493
gramm<>10406
penarikan<>16640
country<>11333
olehnya<>14245
perantau<>21472
amitab<>22570
##arasit<>24895
moon<>11192
toksin<>31749
keri<>24775
##fas<>26276
##upakan<>1618
##mac<>18244
guk<>30205
pemulihan<>12469
ব<>309
bekerj<>10619
baek<>14168
idi<>15792
kalender<>7252
kanker<>7119
mengalahkan<>4090
berupa<>3416
baik<>2324
##uting<>9394
nad<>8635
kerang<>14627
halmah<>17013
disaring<>28659
writers<>31506
child<>11526
martapura<>19143
partai<>2618
melawan<>2910
##aps<>18632
dt<>21107
section<>6676
bergelar<>9815
kepergian<>16356
##eae<>2595
lengkungan<>20035
##atum<>11364
##eban<>20970
##ermin<>8918
##uro<>11986
disewakan<>30643
barat<>2070
kebanggaan<>16276
menggambarkan<>4562
##ensasi<>13257
ikhwan<>27317
##silon<>31768
kalung<>19120
canadian<>21562
312<>29090
yordania<>11980
basis<>6603
agn<>27948
absor<>29303
cibu<>28259
bil<>6119
##me<>2259
##ulu<>2742
diwar<>14521
##quist<>23445
ist<>2388
berdirinya<>6976
pejuang<>8148
akuarium<>24669
macro<>31060
fda<>29442
337<>31007
gaudi<>26042
ataupun<>4803
benev<>24422
##erle<>25653
lint<>4763
##alin<>5030
konspirasi<>17892
kompartemen<>27695
dst<>30899
menanggap<>9961
sukarelawan<>17468
tephritidae<>6499
antigen<>20560
jw<>25526
高<>972
junc<>23366
liter<>6973
wartawan<>7690
kegiatannya<>18875
kelestarian<>26915
prote<>21745
berturut<>7262
##rik<>3675
abc<>11570
bates<>31248
dna<>7789
berevolusi<>14768
scott<>10009
##num<>6644
sitkom<>15965
##amil<>20194
2500<>24678
penopang<>27210
mendel<>27786
kayu<>1840
keuangan<>4525
##inas<>12457
cry<>10564
##oneura<>22487
fellowship<>28070
##etina<>28758
tewasnya<>30372
pks<>18361
matth<>12056
semiperairan<>10121
khalifah<>8956
tertangkap<>13234
##ige<>16614
menunggu<>7916
bombyli<>5700
##oglobin<>28218
prosopocera<>20791
##etris<>16281
##ros<>3269
nara<>13734
tekan<>4992
##bah<>4211
iban<>28051
##atwa<>22596
persalinan<>27600
imperi<>18304
pengepungan<>9695
##alth<>11889
##faat<>7180
##adores<>29536
bonaparte<>23957
duryodana<>22733
##rung<>23461
tatap<>29603
dp<>8668
##ค<>1116
serah<>27780
rahib<>18892
##ampilan<>4122
##erek<>25533
malabar<>26482
tornado<>28641
187<>4439
##gensi<>18143
riaa<>30384
##operasikan<>5175
makau<>18489
kroya<>28104
##unahan<>15995
microstylum<>30539
stereo<>18136
peluang<>10400
##cadion<>16828
kas<>2672
rangkap<>20643
gwang<>23401
##ナ<>1327
lompatan<>26086
pernikahan<>4201
mapp<>30753
##andy<>31786
ryu<>19401
pris<>20376
##olahan<>8733
jimmy<>13761
dideritanya<>22817
##iter<>2258
key<>9470
restorasi<>14735
rah<>3754
tia<>27238
bup<>3683
歌<>825
terjemahannya<>29471
obligasi<>19085
sesampainya<>23599
##ин<>27327
jed<>21183
##ebes<>10368
##esaran<>13561
vampir<>17659
suporter<>19922
tropis<>7561
bara<>8235
loop<>24647
##pkan<>25495
psik<>5855
##unt<>2973
##otasi<>17629
tahan<>8889
kejujuran<>25242
botak<>29841
wujud<>7845
##intal<>27334
##ouver<>16571
##adap<>2010
##43<>28556
##ayangkan<>11599
lembaran<>11487
wad<>8732
pontif<>26489
³<>79
perd<>2467
kanannya<>20147
##horn<>29174
keren<>29242
sjahrir<>24300
lem<>2629
menggali<>14283
pendengar<>16508
##corp<>29556
besi<>5413
##ations<>6894
traktat<>11604
palembang<>7334
hugu<>20099
penunggang<>28177
pekerja<>5192
##apisi<>14465
desainnya<>24256
##essa<>14812
partisipan<>24369
pengeras<>28309
ende<>16750
##ʾ<>1415
ront<>28748
lemah<>7045
mengambang<>26049
psy<>30425
koto<>11216
##irg<>27456
jauh<>3114
richard<>5997
systems<>15488
padukuhan<>30426
路<>924
thames<>30260
25<>2842
tao<>12947
##omatia<>30883
mete<>10906
tjok<>23625
##ihu<>24376
##itania<>3233
##itasi<>4385
ares<>25229
prim<>3063
320<>19364
bek<>3586
ku<>2030
torn<>23459
mahayana<>18798
kund<>25765
##orit<>6249
medal<>18023
cooper<>14481
basal<>27224
wira<>13081
1797<>27310
1854<>19727
poll<>24849
diulang<>22530
##onfir<>8028
masuk<>2636
kaisarea<>27055
alang<>18426
punah<>9735
arief<>18697
mendapatkan<>2733
gnu<>22022
島<>742
##v<>1031
hotel<>4661
pembangun<>22602
##ebi<>23212
playboy<>24924
penerj<>15881
mewakili<>4633
earnhardt<>26119
英<>903
##otivasi<>29115
tobi<>26859
iklim<>6258
dinominasikan<>7859
kaliwungu<>31580
perjalan<>3325
fin<>4252
##osongan<>15582
appl<>22664
grad<>20143
2nd<>30459
deutsch<>22520
concacaf<>24564
##cens<>30615
孫<>715
pembatalan<>22626
о<>164
##tawa<>13326
pinto<>31570
##iform<>14195
tujuan<>3186
polif<>30920
diplomat<>11765
bersin<>16326
astro<>14490
apresiasi<>18266
rene<>20405
ialah<>4020
2000<>3347
diperolehnya<>23118
berkenaan<>17085
mez<>28509
##gakan<>19651
hang<>8961
##acuni<>23216
realistis<>22557
##unculkan<>11574
kish<>20312
filum<>2057
##maker<>31593
##ongia<>4354
m1<>28692
##ill<>2761
pdt<>13805
##antar<>18779
busa<>25245
hamat<>31714
1908<>11019
kekristen<>10270
pete<>20712
39<>6085
ester<>16010
##ambo<>18544
##imb<>5474
laskar<>12959
titanic<>21618
德<>765
cash<>24162
##ilaan<>30154
sophronica<>21735
fosfor<>17345
ment<>13795
sts<>30408
bbc<>9368
##law<>19056
favoritnya<>22065
hend<>5390
menyet<>26776
kib<>13315
kemacetan<>20600
##tron<>16587
salvador<>16981
530<>26669
pendukungnya<>15687
##galan<>6293
purwodadi<>20928
rampasan<>28909
penuntut<>23371
griffith<>31022
##atie<>20578
dipasangkan<>21303
akurat<>10386
##amura<>22932
##ograph<>11419
##eidae<>5009
menyis<>14364
##engkar<>21383
##isah<>2933
jew<>18538
##orda<>29763
ledakan<>8839
##gren<>29084
##serha<>29948
golf<>14179
territ<>24310
martine<>28633
hui<>12818
##inois<>13586
hug<>28548
##esta<>6182
##ahari<>2361
bayer<>26254
manuver<>17720
peni<>30405
find<>31377
rak<>2836
diterima<>4799
affa<>20351
semikonduktor<>19882
lich<>29063
僕<>635
tegang<>24474
masyumi<>27487
animisme<>27138
##des<>13185
##hood<>24707
meledak<>11809
2013<>2837
##odus<>17651
kentu<>21477
langkat<>23780
pastor<>8861
ve<>11037
##ampingkan<>23354
##uj<>1865
dina<>11973
##quin<>22805
bom<>6223
##aulat<>12889
##ellen<>31613
##ʲ<>1372
memen<>2706
intim<>19969
fujiwara<>23598
##odi<>6075
spektroskopi<>24898
zyg<>27077
sitoplasma<>27568
fidel<>28546
brig<>6875
91<>2435
dapur<>12109
uri<>28696
##igo<>13911
##カ<>1332
dul<>14653
arr<>23634
mesir<>3787
konstantinus<>13276
##inggian<>4350
##prov<>28122
##eny<>31385
jatinegara<>20208
dimanfaatkan<>7958
##phia<>14260
pengu<>11987
rohaniwan<>18909
dibayarkan<>26365
##akarta<>2299
menciptakan<>4364
paj<>12532
gron<>25356
radikal<>10306
meningitis<>31026
saku<>24504
##awatan<>6087
aksesoris<>21299
janeiro<>20230
251<>27511
##aluasi<>10243
sel<>1617
lumba<>17040
now<>6776
明<>790
monas<>18719
segmen<>9324
##utung<>27457
memaksa<>7278
hart<>12961
crown<>21709
##ety<>6941
ros<>4577
makin<>7761
usd<>15695
pencetak<>14691
##formasikan<>20677
##ohonan<>9135
##putra<>31762
##bus<>7571
for<>2923
model<>3406
##buwana<>14983
beratap<>31410
##tudo<>3313
##erra<>14159
soekarno<>7604
pered<>14252
lewis<>11352
distributor<>17675
sby<>29553
pernyataan<>5585
renang<>11026
semakin<>3354
dijawab<>27471
##ignon<>30319
petr<>24949
##kai<>23464
##bach<>8885
permain<>24122
vaz<>31848
review<>10288
resepsi<>23186
field<>13175
##56<>22340
smkn<>30317
pri<>4425
counc<>13812
biarkan<>30842
##ragiri<>21424
toshi<>28278
##ingankan<>23789
shao<>24858
##ee<>4083
##indahan<>6066
keuntungan<>5782
dipajang<>24579
mudah<>3947
nia<>12702
kakawin<>22357
##elola<>4839
mahakam<>22021
letaknya<>7581
atl<>8798
kentang<>13213
msc<>27721
mexico<>14808
geologi<>10806
lumbung<>20732
1834<>21807
denp<>12144
direndam<>27338
##ement<>4786
mendokumentasikan<>23540
seattle<>15028
sipil<>4653
palermo<>21353
##isch<>15306
##egitu<>3720
dikhianati<>31498
dusun<>3899
kala<>4058
yohan<>6101
alv<>24348
palapa<>27383
wates<>30375
springs<>23393
sentuh<>21662
keponakannya<>14398
##embuskan<>28458
fergus<>22865
lunat<>20819
bintara<>27228
tanjakan<>29160
yum<>29394
gamal<>30427
capit<>15985
vit<>7458
terh<>2125
122<>11944
640<>24134
josh<>13353
1999<>3755
##bro<>15312
##tika<>11362
##aminasi<>17610
konsili<>8771
diperuntukkan<>15913
horis<>26527
ि<>298
agregat<>11619
telkomsel<>28684
cour<>12278
brebes<>13802
##anggrahan<>27342
##epi<>22712
sebuah<>1688
##dc<>31525
##zh<>4734
dihadapi<>13339
akbar<>13402
wac<>14907
tour<>6059
##tui<>16868
komika<>18103
sunday<>19220
angklung<>23669
##econ<>31318
penggembalaan<>31843
pengetahuannya<>29025
kabin<>15458
kekuatan<>3311
kenis<>26815
wc<>25565
##iao<>8613
kont<>7126
digulingkan<>17686
威<>709
surabaya<>4399
tjahaja<>31644
##uari<>2247
##rodus<>11051
american<>6221
sewaktu<>6975
##arth<>11795
lazim<>8890
##ugh<>5002
##otbah<>11550
metod<>14321
chef<>23921
##tera<>2001
##zuki<>10376
##odend<>8944
##rem<>10958
mengambilnya<>30300
##anian<>3415
##idur<>20687
berfirman<>31622
gosp<>23529
magnetik<>16301
kamerun<>17637
alamat<>9071
terjadinya<>6206
md<>9062
pupuk<>11994
##emplar<>15519
mual<>18715
lehernya<>24533
not<>5630
無<>850
feod<>16438
buatannya<>16015
480<>20882
charlemagne<>28432
genesis<>22156
alami<>5400
lari<>9515
inspir<>21415
aslinya<>5954
kastila<>27197
viva<>29322
โ<>371
##bangkan<>4191
##ledon<>23770
perhatiannya<>19036
salad<>25578
dent<>26857
gayo<>17391
barcel<>9548
perseteruan<>23578
##ophan<>19679
##led<>7619
gemar<>17207
fid<>23721
percont<>29828
##zine<>12375
ner<>9562
##jong<>14834
timo<>19471
dipandang<>7378
1817<>23890
gaz<>17296
bany<>6344
umur<>6450
hannah<>21711
debit<>22282
##buah<>1685
ruangan<>6200
##anggih<>12292
##ajur<>5083
uranium<>14976
kayunya<>25718
##gir<>23817
mengizinkan<>8774
jenius<>25859
antiokhia<>14792
##yia<>29626
757<>31897
꧀<>996
##omat<>14410
buddhisme<>13620
commun<>9806
sali<>20424
##imi<>11757
208<>24207
kontr<>3298
terminal<>5788
##teran<>6456
biologis<>11874
meet<>19871
##paten<>2157
sesungg<>8271
##alitas<>3355
maurice<>17824
wild<>10329
¼<>86
wap<>28329
muna<>17782
kag<>9386
##mern<>21924
[PAD]<>2
田<>858
perbatasan<>4725
##ois<>8674
progresif<>13863
adr<>17112
##uction<>24549
carroll<>28910
mengapa<>9000
propor<>12543
resonansi<>23891
molibdenum<>30142
##skaya<>22611
##osip<>20699
araneus<>13287
##ergi<>15174
berkor<>24416
penonton<>5373
rangga<>17723
alam<>2938
mengenyam<>17330
fris<>20311
be<>2812
andalusia<>26807
husain<>18401
jabod<>23418
base<>16343
##jakan<>20478
penyelamat<>20564
ringk<>15352
pur<>3418
164<>10652
fatah<>19240
ᅧ<>413
curletti<>27565
##enj<>3241
##emahan<>4827
berarti<>3034
##iner<>5393
pengairan<>21386
##ahat<>4991
81<>11459
thomp<>17202
##men<>4167
artikelnya<>30178
somalia<>14829
##epr<>21897
yar<>18232
ray<>6060
##ianya<>7151
##hir<>1790
##mid<>12899
sai<>8626
norma<>10837
nagar<>31069
##empuran<>3121
kritik<>4611
##aruan<>9769
bund<>7904
##onne<>23050
##epankan<>22603
ryukyu<>20869
kupu<>11187
sopan<>18477
##usse<>31456
1844<>22090
viet<>4917
gramedia<>19877
##epat<>2593
katai<>20730
turunnya<>21204
##esa<>7021
##tapura<>18837
kartasura<>24469
##atatkan<>16379
fullbottle<>23806
jamur<>9233
##inat<>7921
disabilitas<>27284
infra<>28668
##tulasi<>25208
pengajaran<>9510
microcionidae<>22653
waj<>26638
##οι<>30211
disekitarnya<>24041
##tav<>13013
##rar<>17789
matang<>11721
honolulu<>25297
portugal<>6991
basel<>19579
alter<>28498
banyuas<>29262
penahb<>20948
##ophone<>29411
##iley<>15702
kal<>2231
pemanasan<>13144
slta<>20526
pana<>31102
kiev<>15400
##sten<>23048
digit<>14076
hidup<>1980
pembelahan<>22667
galia<>18987
terhalang<>25235
##eliling<>5079
##uara<>10795
redaksi<>13613
partner<>18433
mogok<>21450
antivirus<>31369
##eim<>22507
chap<>9626
##otrof<>31739
munisipalitas<>5911
##oras<>17111
##adat<>7838
iso<>7963
268<>31550
dibebaskan<>9035
業<>820
syeikh<>17061
##ritic<>17714
cynthia<>26497
pemilihan<>3501
muti<>12854
##ayar<>7899
diba<>2712
utsmaniyah<>7191
jatah<>22518
author<>18701
harimau<>11110
java<>12166
aneksasi<>22913
bakar<>4870
‹<>466
karang<>5326
maskulin<>22064
seketika<>18681
tebal<>8973
konink<>24812
mcdon<>24821
soul<>12584
other<>18075
1803<>24995
memperbesar<>22765
memberi<>3797
soekar<>7084
secepatnya<>31086
formasi<>8469
allen<>13813
henan<>24326
il<>1931
kompak<>20801
tec<>27495
dikirimkan<>13176
maw<>19865
pengeboran<>25124
cctv<>28206
berjiwa<>31128
memutus<>23133
dimensi<>8250
chad<>15646
mengemban<>14613
82<>8545
menjadikan<>4714
bodoh<>18821
pendahulu<>14710
##hen<>30022
##odohkan<>20892
ekspatri<>29131
##kal<>12186
idola<>10675
##engah<>3159
ˈ<>122
##egas<>16055
syria<>20862
diluncurkan<>5161
wazir<>21812
toba<>9184
nga<>10608
##מ<>1221
sadar<>8118
მ<>386
kedutaan<>11077
bez<>24285
independ<>5502
penyimpangan<>19708
##usak<>6352
marga<>6321
##rutan<>24405
transplantasi<>26667
pestisida<>19063
v6<>31718
747<>16998
pacitan<>23595
solomon<>16159
diadakan<>3587
ditutupi<>15562
sentimeter<>20273
unggul<>10434
pentas<>13870
cekoslowakia<>15904
beth<>13929
sumenep<>17117
##unculan<>9711
kerajaannya<>15124
##tze<>21762
tutul<>22248
##eport<>24633
sesuatu<>3020
##ganegaraan<>6713
##ecca<>27005
##hta<>5548
2d<>27883
sikapnya<>22218
##bukkan<>25671
##oyama<>21971
zebra<>22506
"<>6
##ombongan<>31879
claudi<>21495
persamaan<>7594
pendar<>9560
sasaran<>8523
see<>17501
orbit<>2834
anthrax<>16085
abadi<>9851
wic<>30682
tajam<>8948
##arit<>20315
frans<>9876
perampok<>20640
ningrat<>22313
##ancang<>4095
kolonel<>8141
ilmunya<>26012
pengguna<>4196
makmur<>12666
klein<>26080
protestan<>6772
##ajanya<>30695
belantara<>23297
kid<>6523
##zer<>8194
barn<>16452
##uder<>19436
didekati<>31985
spr<>8775
pemesanan<>23491
exchange<>17666
##hra<>18406
ambulans<>25907
bahasa<>1874
bertindak<>6385
##opros<>16738
afgan<>11239
refleksi<>19893
menyimpan<>7185
##tasia<>22165
sint<>7414
perti<>13704
1833<>22673
dicanangkan<>25582
jamaah<>15173
##traksi<>28090
sidoarjo<>14858
paket<>8142
##eron<>15573
sekjen<>16112
##ocerus<>26437
dimenangkan<>8728
##enggang<>19393
##olusi<>3008
soc<>21436
inst<>28354
meg<>6950
penyi<>7197
biarawati<>19706
asisten<>6884
gregorian<>18231
juj<>28704
plc<>27382
##ciuman<>25580
wurd<>30959
##opr<>25777
psp<>30787
##dia<>19715
##irahat<>9392
tirai<>28778
tanggal<>1906
ok<>2275
melibatkan<>5252
##alo<>6780
utusan<>8667
membiarkan<>10370
makro<>19311
lara<>24265
creed<>30515
ლ<>385
##μ<>1154
juno<>30728
sepotong<>22100
dprd<>6081
angsa<>18237
infram<>18692
asi<>18714
infantri<>18877
##umpul<>6660
##une<>8450
berse<>7438
stephan<>17709
theod<>9794
on<>2692
denver<>25471
kisahnya<>20434
kesus<>13024
diti<>18218
##enson<>19837
palem<>22404
berkekuatan<>15578
pemak<>6507
bent<>4179
##amkan<>4463
84<>8364
##ospha<>23928
vehicle<>25522
stadium<>15134
supranatural<>22255
lantamal<>30663
vis<>5582
sejarahnya<>11867
3d<>11540
belitung<>12856
setting<>22637
galian<>27803
kutub<>8921
agreement<>30013
apostolik<>9027
etr<>23170
eminem<>25307
https<>14248
berkek<>15262
luwu<>16434
ayyub<>18980
##assin<>18770
gesek<>28783
1894<>13569
##awiyah<>13721
meriah<>17830
##beria<>10595
pian<>16216
aid<>10519
banc<>26721
kepada<>1967
sto<>21338
divonis<>24738
dadu<>31293
##eves<>26401
mount<>17030
##qah<>19128
##ase<>3436
unif<>29498
family<>12138
bunyi<>8675
koran<>7898
##beck<>24841
penginjil<>24468
karma<>20162
sanc<>19207
peng<>1644
bogor<>6395
##annes<>8040
pecinta<>16664
university<>4948
berkelanjutan<>10664
lydia<>22445
khalid<>18656
12<>2162
simpsons<>17806
##suf<>8571
menyenangkan<>12158
axis<>27709
##ukkan<>2431
pius<>12692
hoh<>17516
user<>18992
cant<>15216
sakti<>9291
##angkaian<>6662
fira<>11489
present<>25924
##ilingan<>27679
roth<>15287
spiritualitas<>29675
tahanan<>7734
rasa<>4010
##etra<>15574
daerahnya<>16710
##כ<>1400
kompl<>4042
wahana<>10759
##anjing<>15933
##ր<>1194
perkara<>11970
penjualan<>5003
##tica<>15290
spp<>24377
##itsune<>24429
##æ<>1072
diceritakan<>9989
habitat<>9296
sedimen<>16441
himalaya<>18912
metil<>18845
permata<>14093
ة<>232
##enzo<>16772
inhibitor<>27070
shogun<>17785
##osisinya<>28621
pengemb<>13356
puk<>12348
vancouver<>17873
berdakwah<>26514
gpib<>30730
##fus<>31110
##amuan<>16121
menir<>30333
menyembuhkan<>14473
eropa<>2522
percepatan<>14820
canterbury<>22068
##warts<>18547
bertambahnya<>19411
hermione<>22955
dipimpinnya<>27190
##anjutnya<>3465
cip<>7479
越<>922
wehr<>22292
australia<>3421
dana<>5053
pe<>2263
helenistik<>25675
compani<>30647
o<>54
##mouth<>13449
genggam<>14701
guangdong<>20548
##life<>24604
batavia<>7606
148<>13410
connor<>30383
detektif<>13750
bayangan<>13246
##ihak<>2989
harmonis<>20491
kres<>11580
##ammer<>27653
menyertakan<>14837
##zu<>9644
episkop<>16607
##obiografi<>19691
penginjilan<>24187
disisi<>27787
kagum<>22728
binatang<>6429
##tiph<>31388
utuh<>11080
inn<>12165
mengajaknya<>25016
botswana<>26180
hillenburg<>31277
suling<>21439
pamor<>29026
kanopi<>29364
##opter<>7396
gug<>4398
micro<>9714
jawaban<>10865
baswedan<>30748
masjidil<>24888
ilustr<>11920
##arin<>8481
chrysobothris<>10005
rolling<>14920
codice<>18342
ta<>3481
##mour<>23930
tersibuk<>21329
##ujud<>4556
##olulu<>24809
pemog<>26603
##matis<>28437
lucu<>14987
wakan<>23659
##int<>1707
##wei<>28492
spesifikasi<>13337
still<>20630
tetesan<>28196
##astraan<>17106
anggap<>17127
rainbow<>22066
gerindra<>22033
chelsea<>10277
penutur<>10361
dipusatkan<>25908
kenikmatan<>26144
rabi<>13344
##tani<>11143
tiap<>5236
debat<>13816
kandangnya<>20437
berl<>2243
menyiarkan<>13209
soyu<>22403
##at<>1494
bertanya<>9713
laptop<>22543
##aster<>7691
november<>2867
hamparan<>19565
patricia<>27153
would<>29232
cendek<>10914
pembesar<>19750
الم<>26534
ß<>90
evangel<>21730
diuji<>15476
##ontakan<>4676
hanura<>31683
cris<>11681
tonggak<>20131
fiction<>26855
hayat<>30805
garasi<>25081
balet<>20743
##otik<>7846
membatasi<>9463
##otil<>30345
kebiasaan<>8128
##uwen<>23621
jodoh<>24132
ditanggap<>29194
panj<>12140
peter<>5185
twilight<>26843
##tribution<>31995
menguat<>25804
bald<>18590
mou<>24902
kembal<>13675
ambang<>17700
bersarang<>28046
##і<>1283
bisnis<>3925
conference<>15031
ា<>436
memas<>3139
##ь<>1272
dikelilingi<>8608
이<>20738
##onn<>29296
penghapusan<>14250
nonaktif<>20223
her<>3006
kontur<>26161
akpol<>22318
gim<>14657
pic<>5581
orkestra<>14733
sekelompok<>7156
##ogen<>6113
sanggar<>14835
menor<>21718
musuh<>5116
wuhan<>21429
mode<>8143
menyebarkan<>9087
perselis<>10586
##3<>1066
beton<>11841
dialokasikan<>22823
##fb<>18541
##sig<>26284
luzon<>26703
dibawah<>5875
ced<>8199
mendi<>9914
##ikan<>1740
menerjemahkan<>12790
molib<>26885
##emur<>25095
berusia<>4321
##40<>5796
beserta<>5985
ayam<>6281
haus<>20055
melingkar<>16547
berdatangan<>21147
fari<>14400
singkarak<>31360
.<>17
##itt<>5902
ᅡ<>408
polen<>6048
singkong<>19611
mead<>28455
sergei<>28975
##onder<>12214
albums<>22778
##iam<>4772
urat<>21638
musnah<>24776
wizard<>26854
xylo<>25599
chaplin<>15532
hemingway<>26720
fokker<>19895
kedokteran<>6748
gard<>8176
dipanggang<>18869
kwang<>28276
terjatuh<>17343
##ilanak<>29358
rubin<>31970
magistr<>31874
##tone<>12091
##rence<>13663
##oper<>7870
beraturan<>24033
##ramaut<>28900
bus<>3588
kompet<>3795
dibum<>25067
##erling<>25732
diikutsertakan<>29385
meratifikasi<>29809
fis<>3479
bulanan<>14632
moncong<>18807
520<>25799
trey<>19351
napas<>16044
belize<>30917
berminat<>22539
ska<>31225
open<>8957
komponis<>14341
##untukan<>27225
##bal<>5199
mahasis<>18816
padanan<>29255
##asat<>17097
ศ<>363
essex<>31474
km2<>13007
ct<>20454
safety<>26181
##к<>1085
kegemukan<>30441
adrian<>14256
only<>5642
indie<>13849
##opot<>12023
georgi<>23066
##amina<>22343
##unai<>29807
menolaknya<>17961
lockheed<>18642
perekaman<>24294
##alisis<>5087
tafs<>12240
led<>12799
menerangkan<>20633
aster<>1901
melepas<>14497
##ografinya<>16876
##uger<>29981
melompat<>15169
##oca<>21748
beverly<>24259
cinderella<>30076
gir<>5329
irlandia<>5358
##alistik<>14773
fotosintesis<>23899
##andar<>13550
##asinya<>4296
kors<>21987
pemetaan<>19073
##dir<>15730
tradisi<>2810
##ᅥ<>1094
st<>1765
misionaris<>9130
format<>6414
standar<>4236
menyeberang<>20329
##enta<>12964
afi<>26210
##kie<>11319
tni<>4368
terhingga<>28822
##ayap<>17482
zionis<>23548
duk<>3570
##ries<>22937
path<>17070
manchuria<>19028
mewarnai<>21957
##berg<>5026
memperhatikan<>10426
adal<>24808
airways<>12388
zombie<>28540
fret<>29407
pertum<>5044
ateis<>23198
snape<>31275
menghadiri<>7995
##ando<>9032
pemandian<>15723
##oreng<>14955
wit<>11830
f3<>26227
陽<>954
##pres<>9182
mengemukakan<>13587
kath<>14396
groningen<>29732
aut<>5720
pimpinan<>4355
##angi<>2376
pelestarian<>15033
shab<>29872
―<>451
ikan<>3646
pelbagai<>20480
##indak<>5951
hijaz<>30011
##dr<>16757
japan<>8833
proyektil<>24358
jemaah<>23486
##alina<>21409
##chn<>21899
persyar<>9025
stenopogon<>25691
asteraceae<>10301
fluor<>15563
ricky<>19842
##zat<>25914
tegangan<>11536
##ield<>27452
memproduksi<>5125
rhin<>25591
lapor<>23280
oost<>23294
defisiensi<>29776
##entukannya<>20744
plakat<>27252
bermata<>14750
harmoni<>18560
##ezer<>26256
teut<>23506
permanen<>8344
taek<>24323
luciano<>28530
badut<>29310
marketing<>19569
pemirsa<>12281
moldova<>17935
ge<>2542
leuc<>18058
fs<>24722
cun<>19464
jajahan<>14202
##usalem<>28041
##ei<>3194
##irakan<>4188
barang<>3668
rumus<>9984
sally<>27343
pembentukannya<>21401
experience<>29429
sik<>3888
kelurahan<>3559
dipromosikan<>10638
##orum<>12338
sepertinya<>14979
bergegas<>20846
bertaraf<>22735
##ippus<>24211
gladi<>28413
dikira<>31537
sherlock<>30382
bey<>16731
##ompa<>23700
dimahkotai<>17601
memintanya<>16890
generation<>13604
menitik<>26862
##aret<>28802
08<>7550
##engaruhi<>4230
gig<>10473
##ipar<>30624
glenn<>18657
ᄋ<>401
1959<>6980
bertujuan<>6366
##buk<>2805
1792<>25860
tersedia<>4499
sorong<>19896
mussol<>21554
##ρι<>25314
daihatsu<>29620
lamban<>31361
ted<>9220
##ulannya<>25421
lele<>24034
dihormati<>11097
##enderungan<>11739
ink<>13845
##isinya<>6246
konten<>8482
franc<>6720
menaiki<>15469
nay<>16403
karier<>3149
##ovo<>11185
puj<>15138
dpd<>16106
##vik<>18564
spanduk<>21795
duren<>25818
ibadah<>7098
pilot<>6943
##adiyah<>7692
voting<>19668
##elih<>6052
iain<>12306
jemaat<>7890
1785<>31567
tail<>18447
mendesak<>11780
##idz<>31598
pasal<>5023
##atib<>17250
berkemah<>24083
marsekal<>14317
euk<>15874
optimal<>16886
berhulu<>29248
##anya<>1602
##truktur<>7450
mangkubumi<>18775
##ου<>17745
##omodasi<>15620
##izat<>15941
penjelajahan<>19186
##ashtra<>23545
pelancong<>29639
bed<>6851
rhe<>12708
abimanyu<>29108
merry<>25500
##antha<>13890
nikel<>18556
##anyakan<>3200
daripada<>3482
dri<>7627
kristiani<>14306
kom<>1736
pucat<>14999
dicetuskan<>17242
jarang<>5601
tidaknya<>21846
militar<>22059
pipih<>22894
two<>12602
kejar<>25551
mozart<>26224
##zir<>27777
##aswasta<>22146
evolusi<>8006
mematikan<>11718
menuk<>26390
dimula<>28001
oberea<>20452
leigh<>28515
##ucker<>29359
shol<>31192
kakao<>14162
rami<>31589
koy<>26768
##abisan<>18867
ming<>8895
sherman<>25634
friends<>18437
##ら<>1233
kov<>15957
berkolaborasi<>11155
mcg<>28195
sindikat<>31689
ditud<>10629
elektronik<>6302
lei<>23444
diutus<>18005
elastis<>24218
mickey<>26794
diperoleh<>6115
saigon<>25688
aw<>1907
##warna<>3816
ᅮ<>419
berlabuh<>17690
server<>8842
##ikiran<>4873
trial<>29942
##tel<>7946
matrix<>28663
kyle<>25149
kul<>3281
singkat<>5831
149<>12148
polusi<>16422
mengering<>28865
mu<>3999
41<>8217
##अ<>1484
enrique<>28820
robbie<>31070
∞<>480
terapi<>10182
lambung<>10920
paralel<>12569
pablo<>20506
jiwanya<>24282
##engganu<>25262
mengkat<>28015
yang<>1510
cube<>28919
potongan<>8274
detail<>11004
20th<>22772
kamila<>9478
##langga<>17001
pereaksi<>25088
menggeluti<>28318
##icle<>18265
eras<>19549
##utar<>4967
730<>31652
ludwig<>12549
heng<>27037
segera<>3991
gla<>20371
mabuk<>14803
guar<>11483
pegangan<>18335
##ime<>9169
mengekspor<>26379
sirkuit<>8516
##wing<>20616
diperluas<>11327
ts<>4830
gang<>9671
gundukan<>23988
gandrung<>28419
amd<>20668
hancur<>7654
##elop<>7478
priest<>22721
kamer<>14246
marius<>31817
dolok<>23896
##oz<>15606
kepala<>2548
##iso<>19347
circle<>19948
diterimanya<>21150
mengembalikan<>8426
kabar<>4962
lus<>14893
youth<>18012
serangga<>4497
about<>17116
halte<>13292
percintaan<>14030
maestro<>26250
kontribusinya<>20745
dibumbui<>27232
widodo<>12328
hant<>27448
suriname<>17317
anehnya<>26801
menceritakan<>6009
##uas<>2132
1940<>6323
jago<>20637
##nahan<>22261
mengkons<>24709
##hem<>26468
##uko<>11512
##iklan<>22455
menghormatinya<>23011
atraksi<>16555
kronologis<>25515
boles<>14116
kongo<>11922
mengalihkan<>14089
istan<>9755
##ungsikan<>15165
ott<>12875
one<>6335
sepak<>2941
mengkonfirmasi<>17194
pengusaha<>6413
parf<>20500
padri<>26444
##onika<>30153
mia<>18129
ditangani<>12372
##idius<>25880
lynch<>28269
##hiraukan<>29615
desas<>26162
keab<>17124
mempro<>12033
samba<>29138
tox<>25584
nex<>20953
diseluruh<>20297
staff<>15842
jay<>8086
##ead<>15633
motogp<>19926
lesmana<>23015
nada<>7774
gelang<>16858
ʒ<>114
##istensi<>11410
disutradarai<>3760
intinya<>20058
##oy<>2454
penyerapan<>19442
kekejaman<>20279
##oton<>21847
tampuk<>24094
kades<>30649
##bie<>16645
180<>6046
pipi<>23570
kobayashi<>31143
nato<>12844
troy<>21249
misteri<>7579
##ms<>7915
ste<>8232
finis<>13557
conserv<>21753
augusta<>26803
efeknya<>29145
argon<>31415
puteranya<>22925
cinemascore<>31704
##umasan<>25068
astronomis<>31979
##ungkung<>22242
belakang<>3517
##ils<>26823
kelahiran<>4814
keluarganya<>5134
hambatan<>11566
ef<>3000
masam<>27176
tembikar<>18510
##well<>9305
kompi<>12632
granat<>18923
biang<>29190
berpendapat<>5842
qas<>21501
alaska<>12950
zoo<>26348
kebahagiaan<>14045
johar<>28571
bercabang<>17765
##isin<>17728
hugo<>14318
senj<>3694
terkaya<>16776
payudara<>18695
memproklamasikan<>28214
monastik<>27578
cendana<>28205
ditetapkan<>5000
##mas<>1973
ext<>23544
sard<>10097
witt<>26817
torino<>19610
##rop<>1811
beeth<>28954
polis<>20166
penyu<>15694
##ophorus<>17867
harry<>6640
tepung<>10285
comeback<>18382
##ski<>8079
turunan<>9372
900<>9422
sistem<>2279
bayi<>6099
##usc<>11843
kartika<>23572
##ambut<>7114
##oordinasi<>19284
kuching<>24318
traksi<>31398
ᆻ<>432
mengungkapkan<>6423
praktiknya<>17760
siam<>12173
novi<>30044
inch<>28701
##agakerjaan<>29434
##ammus<>29466
##ujudan<>15742
purwa<>30171
kub<>8408
pey<>31801
sumur<>9167
##tig<>24810
komentar<>10895
why<>25293
##ampil<>2536
diunggah<>21790
く<>510
sinilah<>17794
mera<>11416
persipura<>31491
er<>2868
hassel<>30740
berarg<>21464
musl<>27785
studies<>16387
dalamnya<>6030
milo<>29706
sao<>12322
wurttemberg<>22289
menyinggung<>18410
sido<>13641
otoritas<>6763
terak<>13573
gen<>1777
akademik<>7848
transaksi<>10582
instrum<>14316
stev<>7160
imajinasi<>23189
umurnya<>22763
kepemilikan<>8002
director<>13972
imam<>4487
pengunjuk<>18276
menghemat<>21317
tiara<>21872
germain<>24398
##kham<>17397
fa<>3602
cream<>30069
sarjana<>5337
arthur<>10049
intelijen<>10403
##unduran<>15527
merampas<>22986
##fly<>23172
galis<>26268
lsm<>21164
nr<>22685
1100<>26364
##inger<>11262
toleran<>25678
پ<>261
kings<>15293
fisiologis<>26382
œ<>101
stewart<>15268
##ibusinya<>18655
##sour<>30440
tkr<>22983
pin<>3246
黄<>977
ib<>2538
manual<>12729
capital<>16667
amand<>29002
drum<>6350
lyn<>12511
millidge<>21214
tonga<>23001
aggr<>21797
piramida<>12784
##mia<>18517
##efinisikan<>7054
elev<>24459
multip<>23268
##uyen<>17740
sanskerta<>10205
##areng<>21601
##ural<>24345
myster<>30117
lu<>3500
##toni<>30925
memantap<>31180
##jur<>8485
der<>3688
sidang<>7463
fk<>14607
asiria<>19196
##uansa<>12052
kulon<>12226
searah<>21112
amsterdam<>10296
##ondis<>14011
murni<>7254
versa<>21417
budiman<>24734
ambigu<>23741
##ocia<>30708
euler<>31774
diketahui<>3494
yag<>22098
pesta<>6241
234<>27056
firenze<>20590
merilis<>4180
##trad<>13736
##estra<>17962
magnif<>31808
soew<>28510
dengannya<>7815
ص<>244
dewasa<>4008
silla<>13822
##sinya<>7003
membunuhnya<>13760
boss<>20611
rokan<>22779
##ik<>1517
diputar<>11178
penggem<>22216
menghapus<>11801
##hib<>14922
##τ<>1045
335<>29093
pering<>5998
angg<>2011
abjad<>12190
interior<>13283
personil<>13685
toksik<>28570
olymp<>13558
##alihan<>15659
meluluskan<>30220
—<>450
watson<>16978
berbobot<>25232
mpu<>16699
##isir<>4708
ac<>2419
aktor<>4013
##oja<>7938
kip<>8825
kontin<>13198
celana<>15038
penjahat<>11555
##aktor<>9283
conven<>16677
liri<>16951
waz<>20313
rendahnya<>21403
mengubur<>27110
jenazahnya<>17635
penduduk<>2245
##itta<>22267
kansai<>28903
do<>3621
ल<>291
##upa<>2725
jenis<>2562
fosfat<>16487
indragiri<>22203
musuhnya<>17419
10<>2178
dop<>16771
##ingkai<>17613
muh<>3332
mentega<>18777
ionisasi<>28967
昭<>793
pembac<>11650
duo<>11117
predikat<>16195
mentrans<>16380
mazhab<>10158
##adeus<>27391
baginda<>20289
punc<>4141
lp<>10986
kerumunan<>19014
##tial<>21067
spektak<>23099
asl<>5873
socc<>14658
dialaminya<>26461
maga<>11617
minnes<>21153
bidang<>2656
##folk<>29270
exe<>29883
##zong<>12724
abel<>21663
akuisisi<>15883
siddhar<>25002
ams<>27996
centur<>14560
tirus<>29217
boh<>7829
##bong<>12147
##ampuan<>3600
monter<>28300
berry<>21187
penug<>12777
133<>20762
pag<>3770
##ultural<>17680
dynamo<>30526
##iti<>3304
female<>26802
optik<>10996
helsin<>19318
sepen<>5453
koral<>28664
special<>13390
##reditasi<>9932
clar<>20469
1813<>22965
menimba<>24169
senapati<>27952
menan<>17971
rss<>22116
menstabilkan<>27481
karo<>12504
pucuk<>15077
mutakhir<>23033
##evitch<>28291
penghasil<>10500
ditengah<>17114
tersingkir<>19215
terbaring<>30851
##aco<>12268
khair<>19981
laz<>27900
alasan<>4268
memer<>5563
##ego<>10615
menata<>22373
nangka<>25456
jakarta<>2647
##onto<>10469
brew<>26032
sinetron<>5713
politis<>14064
menyepakati<>22443
##inalis<>25878
diadili<>18031
khusus<>2632
##44<>22931
##afalkan<>22188
##eto<>9747
penyesalan<>23831
720<>24192
duta<>6821
##uary<>19309
walis<>31380
dihitung<>10054
##angga<>3266
personal<>11699
herak<>15399
katek<>17677
membu<>4184
iuc<>20723
pengg<>3922
papua<>5369
induknya<>16799
shun<>20203
giant<>21592
source<>19957
##noy<>27634
ep<>2748
berlandaskan<>24146
##adana<>19573
inflamasi<>29821
isai<>30561
##itch<>8958
##irikan<>2380
##cky<>23204
indian<>9789
penjelajah<>9090
btr<>28073
perjanjian<>3183
iden<>12026
##itr<>8247
stmik<>25259
stra<>17118
kepemudaan<>31625
berhubungan<>5162
##enangkan<>6340
ilahi<>11085
greenland<>16488
bunuh<>7437
pabean<>30798
eun<>11301
chal<>14075
##omyia<>11945
##ex<>4404
beri<>9604
apapun<>6546
##anas<>16366
dapat<>1708
hudson<>19110
meracuni<>30692
welsh<>31694
shik<>16423
buntu<>21612
nederlandsch<>23073
،<>228
pelayanan<>5218
1938<>8474
##kia<>20513
yamamoto<>22017
sumpah<>11367
produk<>3135
digital<>4829
##aktian<>13239
pascasarjana<>13531
going<>28359
kebenarannya<>24856
eduard<>26168
121<>19527
diasuh<>22388
talenta<>24614
sek<>1663
beralasan<>25372
s3<>20156
mengag<>14879
##anning<>31480
ui<>10178
tos<>17724
matan<>23427
##identifikasikan<>16363
metaf<>25056
circuit<>27151
cer<>2069
##hani<>13217
##ris<>1808
chari<>18831
rings<>28924
mengob<>10756
buny<>30714
dilantik<>7589
kehadirannya<>25086
spiral<>17608
##buat<>1868
##anjang<>1933
prosop<>17302
kunjungi<>31715
urutan<>5332
##loitasi<>13485
ར<>375
resep<>7942
190<>3681
pandemi<>18835
郡<>931
##inn<>10751
persetujuan<>7171
derajat<>8284
##icent<>25884
kanoman<>27858
noir<>31337
##ffy<>25930
650<>17414
##yim<>14923
bertar<>8830
merem<>27041
##ost<>4828
rilisan<>29261
gnome<>29268
##raf<>2635
kebudayaan<>4362
emma<>15584
mirror<>26220
bizantium<>8376
##arkan<>1810
##tang<>19139
basi<>14737
sami<>24440
foto<>5007
triliun<>12837
terlestarikan<>20105
bapaknya<>25171
siemens<>25504
dogma<>26183
jender<>3424
##tainer<>24820
keped<>17266
##imbulkan<>5364
bersepakat<>28789
mengkhawatirkan<>25058
wireless<>26892
jasmine<>31760
##ש<>1089
nark<>10839
gradien<>28511
##ulasi<>4656
eman<>21944
infras<>8363
zid<>31298
ain<>13158
##თ<>1397
##ould<>23038
punj<>14766
bahaya<>9436
jaga<>17205
sot<>27723
##uit<>10059
##if<>1947
shev<>31323
diucapkan<>11027
##ings<>5939
client<>29609
道<>927
plan<>2422
##chang<>21746
aerospace<>20885
manokwari<>23075
volvo<>28887
##rosia<>27656
anda<>5344
##akapan<>10689
##turunan<>3451
##umo<>11567
##70<>17990
banjir<>7558
dicuri<>13966
wh<>4312
alun<>7730
##scher<>31267
musta<>15559
##lin<>4320
##tra<>3010
arkeologi<>9150
##endum<>10706
##arman<>26990
##kins<>11620
##nin<>29068
##color<>25448
ब<>286
terbelakang<>31744
##kes<>6292
##nik<>6717
gaul<>18028
mash<>22077
short<>15520
christopher<>12881
pembinaan<>9476
kart<>9468
##alukan<>21926
diing<>8401
duck<>31924
tainan<>31444
##ye<>5710
viktor<>19515
##wung<>22341
##ambungkan<>22749
##ん<>1313
lapar<>25367
perisai<>10379
建<>758
pergelaran<>31619
berpat<>24936
##antian<>7148
##amakan<>4402
menyuarakan<>19229
##essive<>25794
peziarah<>19171
##yk<>28121
tubuh<>2891
ipa<>18097
##eha<>21607
uangnya<>23446
2005<>3091
##inggikan<>28902
anjing<>5852
##ebon<>5653
inf<>2512
segi<>7731
pere<>9956
ple<>10964
scientific<>27630
grace<>15528
mainnya<>31355
##off<>7475
flet<>24801
kobalt<>31158
##usul<>6143
oliver<>16697
##atasan<>3155
seat<>13053
政<>781
μ<>137
め<>535
##pos<>14437
limit<>11569
menengah<>4030
##bot<>22707
pengungk<>28285
dikontrak<>17046
##osph<>28229
##agnet<>28558
##encan<>4182
##imas<>25660
fundam<>15588
##mes<>11870
##elius<>16804
konrad<>17267
##utkan<>6895
kultiv<>23151
##irama<>24203
bermasalah<>17858
point<>9886
##guna<>7235
anton<>6235
##inter<>8499
omega<>24836
mix<>13830
kane<>23332
fel<>11496
ionik<>23402
כ<>213
inland<>27725
amp<>2688
##arita<>15404
begoniaceae<>11842
didahului<>19167
aux<>22627
penista<>28602
shue<>30773
mikrop<>26134
tebu<>14034
gusti<>11790
permusyawar<>20868
lithuania<>17148
jembatan<>4892
meminjamkannya<>26185
hiro<>23364
katalog<>14404
##uju<>3219
matern<>31797
##inci<>7061
##erint<>1895
stella<>23083
kec<>1775
kendal<>14850
seluas<>5790
diaktifkan<>20075
kirim<>29855
craig<>18397
pelayaran<>9977
##egu<>17163
dich<>20212
zal<>23996
ketinggiannya<>29525
memicu<>8510
##faatkan<>4978
##escu<>28333
##apian<>16889
soeharto<>9165
tayang<>6651
didaftarkan<>17512
##ים<>20967
shinta<>28047
rimp<>29909
politiknya<>13182
##omac<>25040
dialog<>9585
bersifat<>4428
##ivora<>7836
##yadi<>12542
belu<>27001
mangkurat<>27154
alf<>6042
##urahan<>3505
mikroskop<>15860
menab<>13325
kemahara<>24667
pekerjaannya<>12373
kemurahan<>29502
##rand<>23110
##gy<>9120
persenjataan<>11298
lumia<>29378
bolt<>31626
memperdalam<>21649
你<>628
memberontak<>11090
pandai<>13078
agen<>6788
giles<>29597
##erg<>17589
manufacturing<>30820
##ictus<>28811
menuturkan<>15531
pembel<>8726
##aham<>14859
superior<>20334
pegawai<>6391
galaksi<>8730
##โ<>1414
holland<>15388
##ria<>3980
memasarkan<>18322
susi<>24137
thank<>24813
1787<>27814
##tr<>1606
downey<>30887
narasumber<>26014
kekelir<>27601
mausoleum<>28687
mengindikasikan<>13414
##atrik<>21654
deklar<>9803
frost<>29158
tan<>1892
pariwisata<>6850
sampo<>22511
relatif<>5482
hogwarts<>18805
santoso<>19498
subaru<>29580
koen<>24524
kurus<>25505
##ist<>3442
ledak<>21060
rui<>20946
##ash<>3389
terima<>11249
baris<>7823
semasa<>8253
membah<>13664
marzuki<>22858
banjar<>4482
penulisan<>7466
##onjol<>7818
mcdonnell<>25646
##aring<>7699
airnya<>14311
ames<>28872
menyerbu<>11331
moor<>19035
marcel<>17465
ahm<>22517
##ve<>3488
ग<>274
kamus<>12004
gott<>22593
##bullah<>19966
tugas<>3511
mustafa<>19013
menjalar<>29810
##ħ<>1211
##arkhos<>31614
##ii<>3216
pewayangan<>22893
motif<>8223
##elang<>7574
trak<>10889
austria<>4741
peminat<>29866
tesis<>16144
gerbang<>6561
daftar<>3217
##ile<>6268
bai<>12515
vagina<>22523
belaka<>22535
tatkala<>20420
polong<>24473
star<>4541
##wo<>10654
berem<>24238
airbus<>13567
ditakuti<>25176
##asif<>3994
jaring<>16433
##pid<>30831
semut<>16654
ர<>329
##ator<>2699
##ʻ<>1336
##ongk<>14769
piece<>31056
##anjian<>3176
##obil<>28000
coburg<>30360
tidak<>1653
60<>4486
##ص<>1091
eurovision<>11397
elvis<>17852
perniagaan<>28457
diminum<>21721
supri<>23702
stutt<>20352
##eko<>17813
kawasaki<>23794
tn<>14906
tiffany<>26226
syd<>7796
pione<>24521
##empatan<>4578
##ophon<>26211
##matik<>26232
perincian<>27844
##os<>1597
194<>2344
æ<>91
bonang<>31268
diterbitkan<>2250
##idge<>10909
lazio<>21953
dikan<>25654
interst<>27557
kafilah<>28738
bangkok<>12354
vide<>29208
yudas<>22496
akb<>8683
bif<>25539
mempersiapkan<>9158
##emasan<>11118
rekor<>6312
jenjang<>9142
kemay<>28499
kebaya<>31658
##awancara<>7027
geng<>11556
##ongs<>19743
dyn<>24757
##lands<>12841
dand<>19815
##ususkan<>12143
carrie<>28669
perdamaian<>6114
##iaceae<>8112
700<>8260
##yin<>11672
didominasi<>9157
wikipedia<>11242
persembuny<>21051
##uve<>24904
merel<>26947
madya<>15594
1784<>31976
##asama<>5883
##ch<>1731
##edr<>27944
ibukota<>13437
impor<>11122
megatron<>17347
pesi<>22832
##ajakan<>17493
sekur<>25137
##erm<>11160
kura<>10972
##chth<>28339
bertajuk<>10535
##elium<>26520
naskah<>3913
##ikis<>24906
phi<>28549
##gia<>4576
engineer<>28784
ant<>3832
upacara<>4155
prosedur<>9302
suatu<>2257
##teriak<>17329
anggotanya<>8398
tingk<>12951
middle<>19011
##word<>30977
shinto<>19962
##ibusi<>4820
civ<>11767
##aris<>2400
sarung<>15398
dilisensi<>28708
grand<>5048
##bad<>14572
keda<>29921
maleficent<>30747
陵<>953
perbandingan<>9659
document<>31574
vienna<>25627
rio<>9950
peneliti<>7106
##ajuan<>7343
melengkung<>15770
homoseksual<>16241
oblig<>17270
emily<>19169
amper<>28447
ubuntu<>26714
5000<>19274
monaco<>21247
##ameral<>27328
singkawang<>26972
malaka<>9931
##olik<>3120
ditelan<>31121
itulah<>6068
##iria<>14055
nangg<>31929
penyel<>5917
girls<>9631
##yit<>25771
##ubungkan<>4909
hms<>15604
suc<>22078
mayjen<>20148
sagu<>16600
arna<>28286
##ies<>8403
dihargai<>16744
樂<>822
strat<>4314
pagar<>11753
playstation<>13248
jejak<>9343
seal<>27125
arts<>9397
##itha<>22480
huta<>16445
autobiografi<>26750
broad<>8599
##inium<>10438
ʲ<>117
skuadron<>14570
##iae<>16670
##ekuk<>26351
keng<>24336
##umpah<>13155
##lavia<>7660
阳<>947
##rakarsai<>15500
dikehendaki<>29484
wala<>3299
house<>7753
guatemala<>14100
nyata<>6580
##entralisasi<>22163
##naf<>30631
chris<>4104
priv<>10048
platform<>7793
obenberger<>14539
##inis<>8035
tash<>24268
长<>943
vin<>11939
siarannya<>30001
etnis<>5531
[MASK]<>4
dini<>9889
merc<>8231
##card<>16460
menit<>4545
##ogenik<>20788
hay<>6566
menyelesaikannya<>30120
##alah<>1548
mendalami<>16463
##arikannya<>24726
tert<>5771
makh<>5818
majapahit<>8191
berkapasitas<>12806
berib<>17914
kiper<>19500
kandang<>7179
pengebor<>24026
reaktif<>19943
##opia<>9055
rudolf<>15676
mengubahnya<>20224
##yabandi<>29436
merdeka<>6865
wik<>8773
menjalani<>5734
##akura<>19731
amfibi<>14921
##view<>24742
antiv<>27779
menyalin<>28230
##cion<>15998
##atia<>29742
perempatan<>30053
##ram<>4260
diharapkan<>6729
ekstrak<>19037
mex<>12213
m2<>12846
station<>14524
brigif<>22364
memperkaya<>25472
bermas<>13346
diproduksi<>3743
##isik<>27890
##ora<>3228
hanyu<>31974
##コ<>1203
eur<>4442
margar<>11018
sejenak<>28131
menyakitkan<>29048
peneg<>11033
keahl<>8630
quick<>23095
##ม<>1114
perkumpulan<>10302
ksatria<>12007
defin<>14752
##orial<>23380
fas<>10142
se<>1496
smp<>4228
##ophy<>17253
bagaiman<>8633
tontonan<>29278
berinter<>12112
lami<>15001
##hab<>25191
esp<>19576
optimus<>18788
##hul<>20425
myrt<>9337
difungsikan<>18622
і<>182
isti<>11256
julukannya<>31564
##み<>1403
##ilang<>3565
komunis<>5272
ind<>1664
asm<>26474
char<>3898
##bok<>26194
##erial<>21225
perkampungan<>12454
##apkan<>3791
##ogn<>11035
fau<>16594
preman<>26395
trek<>11112
##ingkat<>2006
eli<>6189
##ci<>2527
ayahnya<>3423
##י<>1131
henri<>11785
pihak<>3085
jacques<>14280
##rep<>27205
qatar<>13070
adit<>12028
##tan<>2049
canada<>15894
telev<>21489
ม<>358
memangsa<>21419
regulasi<>13646
asupan<>22662
dibatalkan<>10294
modul<>14513
207<>25611
intro<>27058
interd<>31955
dist<>20553
digimon<>20368
##bar<>3642
##giz<>18682
cgi<>31998
diperpanjang<>12955
##undingkan<>29699
taka<>22994
##akari<>20302
frekuensi<>7590
temperatur<>9942
eunidia<>20568
##ission<>18752
instalasi<>13762
##চ<>1441
of<>2077
rump<>4993
##ading<>13166
##iland<>28389
jaket<>22497
333<>29375
dipandu<>17283
reh<>12419
buatan<>4994
##wani<>25035
##kers<>29557
bereksperimen<>24131
berlian<>16509
meniru<>13703
demo<>16102
##utr<>10557
tita<>21841
didi<>14664
teknik<>3628
pengolahan<>9265
kang<>7847
##yen<>20158
ed<>2645
board<>14056
##ons<>2119
##inspirasi<>7411
kenneth<>22389
##akat<>2126
##ardi<>8362
ump<>27135
abangnya<>29845
##uncak<>21011
##isa<>4204
berpenghasilan<>30188
tanjungpinang<>28253
jelata<>22334
bud<>2335
selagi<>26199
ftv<>22629
##umbang<>21894
were<>17550
sastrawan<>12694
gamb<>3441
disiksa<>19232
bereng<>29629
balas<>14378
eksentrisitas<>3425
mengejarnya<>29530
jaguar<>23841
verti<>24971
cpu<>24867
computer<>15022
##へ<>1370
zhao<>13165
##laren<>16479
pengec<>8762
##ycar<>23258
monc<>16966
##angsian<>29305
stall<>30031
##icornis<>18350
bangku<>12662
ach<>9487
andara<>20975
sula<>11197
galat<>20587
melayu<>4599
belas<>4306
##otrans<>31757
mans<>14310
perh<>3543
boot<>20219
navig<>24063
sunnah<>18706
tanaka<>24315
sctv<>12369
tad<>12566
stasi<>2654
ram<>3526
tien<>26956
ע<>220
##impung<>23614
tape<>23872
##gani<>20084
berlakunya<>25891
menempati<>5368
kuliahnya<>19446
dibentuklah<>20369
1806<>22142
prihat<>26868
yohanes<>6160
kesatria<>13529
マ<>578
represent<>21136
##adew<>25655
##yeon<>26350
bingkai<>20496
berkebun<>26377
##rid<>4912
##arkas<>9104
##ras<>4431
pesaing<>13343
##enhagen<>16130
cru<>16704
singap<>4227
agong<>30481
persentase<>13188
dibangunnya<>21442
marshall<>14171
brawijaya<>14525
##can<>14578
##hio<>13211
179<>7186
hibrida<>17857
ful<>10904
kelt<>27592
melewati<>5264
challenger<>18582
patriot<>19860
bebek<>12045
chang<>7857
rekonstruksi<>15805
marie<>9862
″<>465
##angkap<>3571
stik<>20348
warri<>17312
penutup<>8262
meleb<>7445
lim<>4938
##arta<>9526
mengikuti<>3272
persep<>11269
tianjin<>28907
bay<>3378
##lob<>21552
munich<>16043
mengakomodasi<>22545
##ontasi<>17801
pud<>15441
##engger<>23633
peremp<>2875
melip<>3328
tertarik<>7146
##rell<>18211
muawiyah<>27747
izin<>6578
grav<>8906
ratus<>11668
##enk<>17024
##ropus<>23087
proporsi<>17786
kamarnya<>25672
scaraba<>6151
##ceae<>4438
membaik<>20292
##bondo<>25440
seolah<>11149
terkesan<>12559
probl<>18767
sambutan<>11940
masalahnya<>25204
##ova<>7625
mengutamakan<>15855
tow<>19159
beralih<>8085
dipak<>27731
rambu<>22489
##о<>1112
sonia<>30612
##rejo<>12973
bibinya<>23270
##lag<>22741
##onale<>23112
##icius<>24411
powell<>22285
upaya<>4152
stein<>19413
keaslian<>30525
sajian<>22982
kemajuan<>7513
##edang<>11603
gonzalez<>24565
lagi<>2477
cucu<>7522
pha<>22370
pembacanya<>30593
walckena<>30015
rajawali<>22783
memetakan<>26318
latif<>23747
wajo<>21864
agency<>15238
ო<>387
##iday<>19090
經<>887
##shan<>18485
##teri<>2377
fig<>21738
mengunggah<>20161
interna<>26403
##esip<>28394
didesa<>27735
jurnalistik<>15755
sabtu<>9185
menghidupkan<>13965
gia<>28075
percontohan<>30144
gereja<>2495
asim<>16653
ukr<>6306
ero<>13742
hag<>19366
terdapat<>2218
##ਾ<>1385
##anyon<>26355
bosnia<>9937
##uksi<>4286
beradu<>20213
ritus<>10402
##roit<>14327
curug<>15231
digunakan<>2015
outlet<>25443
kadipaten<>8366
ika<>25525
##odendron<>10125
anci<>26427
336<>31071
schengen<>31142
##ogp<>19868
##egor<>8566
memerint<>4048
atlan<>11833
##atisme<>29686
denis<>15014
apartheid<>25465
##med<>8072
anthony<>12650
、<>495
gud<>9156
efisiensi<>12036
populasi<>3916
pengalihan<>20499
humph<>29110
##alang<>5417
silikon<>17648
trick<>25013
##ets<>10872
pkt<>24628
##ekali<>13635
##ako<>9745
kalam<>22796
kelelawar<>18881
etan<>13153
350<>12267
terpopuler<>21610
pemicu<>23434
##с<>1084
##uela<>11314
kurun<>9556
jam<>2556
kalib<>20321
##arktik<>25243
##andarkan<>26865
cinder<>26904
padanya<>10254
suaka<>15051
##tinya<>13977
##zza<>14747
seych<>29448
##liser<>19670
##lit<>26193
mengesampingkan<>31214
##das<>8559
shih<>23413
hidr<>19787
menyep<>19141
dibantah<>27902
hob<>14032
##osintesis<>19601
305<>24783
##ahir<>24693
valencia<>16024
hertz<>31406
manufaktur<>13642
4000<>22495
kerja<>3287
terwujudnya<>31364
alga<>22182
komisioner<>20998
pembuat<>6617
earth<>11011
barrich<>30988
noel<>29412
##endy<>15877
bacaan<>10969
ukur<>15316
##athan<>13345
虎<>909
##entak<>13347
##orama<>16759
##ografer<>9480
timbal<>10639
perlahan<>8998
dipotong<>12259
harmon<>24378
##etah<>2531
penunjuk<>29118
theodosius<>31692
##omerus<>28391
lunar<>22384
pengecualian<>11332
linc<>11712
ketek<>23828
##uet<>14810
1918<>8589
##uha<>17791
yugoslavia<>9743
terpanjang<>12422
kehitaman<>21888
hex<>20845
##lock<>16099
keresidenan<>24119
allah<>3345
##elir<>10716
bassis<>25254
cemara<>25298
mengincar<>29178
ল<>313
pick<>19015
##ontong<>20520
2008<>2876
sars<>22575
canth<>18748
##egger<>25464
〈<>497
assassin<>26525
perkawinan<>7424
169<>12128
planetisimal<>3576
nev<>10313
##odinamika<>15767
bohem<>27022
penginapan<>17681
menyed<>20388
plus<>9249
memil<>22075
pertemanan<>31042
berar<>2979
didaerah<>22871
jayakarta<>25210
##eet<>5629
gigi<>6365
mendaftarkan<>14780
1974<>6228
fase<>7244
berlatar<>11687
berabad<>12850
kulitnya<>20186
ngarai<>23514
wiran<>30683
meraih<>3340
##ani<>2210
##lis<>2459
kesenjangan<>19269
gaozu<>27624
terputus<>16297
reog<>24639
##บ<>1262
さ<>513
exec<>18465
banyumasan<>30000
##tivitas<>8013
jual<>14478
yusuf<>8263
##ulusan<>5907
stain<>19187
dokumen<>4617
harm<>10591
celcius<>23333
##yol<>23751
messi<>17974
horiz<>14852
imaj<>16408
stud<>10787
mencatatkan<>17600
##quet<>23282
sato<>25077
astronom<>10221
multis<>27257
##asius<>15738
##ediasi<>24250
penerangan<>12427
hebr<>19757
dibalik<>17311
barangkali<>24313
glas<>15852
sule<>20992
ringkas<>25213
sonic<>21206
spe<>8949
topografi<>13659
##alahkan<>3352
dal<>7041
tini<>20603
partisi<>20187
devosi<>25476
reggae<>27806
##vre<>25131
##kab<>22024
##anti<>4134
##ola<>2253
etiopia<>20510
berbulan<>22266
##uster<>13598
christina<>18156
ramping<>21979
##ianisme<>12927
zaman<>3013
memperoleh<>3815
##pi<>4880
##oksi<>22567
sosis<>24045
##eps<>13938
##sik<>9538
melebar<>21823
kota<>1750
purwosari<>31823
didorong<>12353
hol<>4033
rezim<>8488
##ix<>9623
kritikus<>6261
zack<>28120
09<>7822
##anggapan<>17531
bs<>18471
pantai<>3289
incheon<>31937
tian<>11078
lotus<>17563
umar<>9247
serpihan<>24016
squidward<>19933
verifikasi<>22413
mendaki<>20916
siput<>22760
taat<>15251
tarumanagara<>26979
##sul<>14295
perekonomian<>8400
##м<>1160
##awijaya<>12472
##amat<>3321
beratnya<>17274
menyebut<>3296
tuberkul<>24106
dansa<>17790
ditembak<>12585
ᅥ<>411
##ohon<>3273
flight<>19087
gita<>19583
##akn<>26677
leh<>8396
seimbang<>16360
pantainya<>28608
terpakai<>29409
##auh<>6326
##χ<>1163
lurah<>12952
dilipat<>27714
kelembapan<>30012
##oni<>3087
##ket<>23249
##kad<>14681
perta<>21285
kekag<>30775
##rnya<>21262
##rad<>2655
instal<>13027
hoc<>31713
rahang<>18891
jennings<>28203
efek<>3578
##ektor<>7044
sangk<>17771
##giat<>29567
mississippi<>21106
##mb<>24543
eksisten<>28007
##entase<>12228
arteri<>17012
##ukuo<>31325
boy<>5330
##tage<>25837
ath<>5928
elec<>7706
anaer<>28906
arth<>2063
kecenderungan<>11866
pikir<>11808
eksped<>7023
semitik<>29078
indo<>8680
perlakuan<>11733
yoy<>22127
##core<>14505
menyiratkan<>17721
demografi<>20521
nomor<>3054
jikalau<>30672
sesaat<>13305
dominika<>19320
ketr<>24408
haru<>25888
wortel<>29591
silik<>14874
kegembiraan<>23847
##oot<>29625
nyaris<>11473
##uliakan<>21013
bafta<>21532
##hiro<>16902
##sw<>27675
rincian<>11816
magnet<>10024
kerinci<>17382
setuju<>6924
bercerita<>10168
pemisah<>26024
##omyza<>8887
##oan<>13820
memang<>4715
##ech<>5801
sembari<>18167
##yar<>2000
pandangan<>4916
ideologi<>9681
##alan<>1813
dipelihara<>16334
ono<>23793
##anggut<>27954
nasib<>9088
fungsinya<>13433
##ст<>26234
ketrampilan<>26462
ken<>3047
##hor<>21574
##ekaragaman<>14967
##sil<>14680
riv<>7309
##anjiri<>24729
“<>455
glob<>4377
tai<>4412
penggambaran<>11523
ito<>20707
##ს<>1325
thiel<>28288
##ack<>2889
ichigo<>31430
##rei<>26613
menangg<>28440
heidelberg<>24568
الا<>31827
##enakan<>5024
spesi<>1647
myth<>19550
minis<>22996
##istribusikan<>9015
dita<>3746
praha<>15539
turk<>9674
katun<>30854
asam<>4213
keabadian<>26758
butik<>31008
kli<>9786
jk<>27074
##angkara<>19305
sierra<>17584
中<>606
##uarium<>21582
pemiliknya<>17072
##ua<>1659
berpihak<>19294
serdang<>19828
balkan<>14198
kaba<>20896
##patia<>26738
##ofilia<>29414
fatimiyah<>28627
barb<>19420
baya<>27365
donau<>18281
terlibat<>4234
tel<>2128
gag<>3271
jurus<>14805
penampakan<>17660
improv<>22360
kyung<>22310
##ambil<>2455
menyapa<>31899
##erapa<>1787
pedalaman<>9997
##loid<>15248
fusi<>15727
mengolah<>16280
##ukai<>5210
##gn<>5543
##lukkan<>7141
##ucester<>28877
##adu<>5805
morris<>14219
merit<>28228
##umbu<>14564
##gabung<>2657
membuatnya<>5152
makalah<>14282
aero<>24753
##ungkin<>2304
字<>712
dihar<>10995
mandailing<>17184
##inju<>18078
##ihatan<>9949
##atuhi<>12017
cloud<>14817
pp<>6297
wa<>6576
tertib<>24544
muhar<>30116
soem<>22185
ⴰ<>494
kick<>20423
sab<>4346
lingua<>31975
sebelas<>10841
ub<>13036
##osper<>30983
ob<>2547
patroli<>13912
web<>4250
ر<>240
warga<>3167
##trat<>16348
gupta<>29683
ᆫ<>427
##ー<>1158
sepanjang<>3147
##efa<>6439
fotografer<>14962
##zol<>25915
helic<>23182
##ahu<>4747
casino<>25756
mengintegrasikan<>21821
echo<>28983
cedera<>9043
lir<>6074
berant<>23970
teroris<>12698
etn<>23799
kesej<>8295
##away<>21090
bersepeda<>29164
salinan<>10043
mulailah<>25250
##edis<>21048
masif<>23853
jyp<>23877
##adilan<>3957
dichotom<>28033
み<>534
sl<>3855
ditiru<>27998
sunan<>7928
kejuaraan<>4804
qura<>17650
gubernur<>3840
ketakutan<>11079
tablet<>14275
spo<>29978
nps<>16582
##kon<>14477
olah<>3833
dikategorikan<>14156
##etri<>11821
128<>11548
perus<>17431
shakespeare<>16724
##ombakan<>18334
states<>13160
777<>24064
betis<>29658
bhakti<>19080
horror<>25249
helm<>14427
##erikatan<>6271
##roduksi<>2985
berkh<>16523
persem<>11578
##assus<>17144
##yan<>4620
ruh<>18020
suaranya<>12253
inilah<>5349
rosen<>25590
berposisi<>15213
membintangi<>7110
woody<>25375
pada<>1535
menambahkan<>6553
ferr<>9067
ukiran<>11544
deg<>9541
mengira<>13076
united<>5094
terkuat<>13677
disebar<>25045
sciophila<>27970
tala<>15491
kesehatannya<>20635
zeppelin<>25798
ate<>24912
##safat<>5970
menyisakan<>18111
##00<>1827
marine<>19049
##vert<>31881
didiagnosis<>24217
anum<>13728
lahan<>4162
cock<>22829
bagaikan<>21597
vijay<>27982
fi<>3723
luk<>3894
terigu<>26772
##nox<>23800
times<>8082
ɑ<>104
anyaman<>20277
##bumi<>6148
kombinasi<>7920
##リ<>1212
##wegen<>24037
firda<>28892
pengikatan<>29076
kesetimbangan<>17304
ホ<>577
otak<>6981
cina<>4969
solo<>5147
cup<>8409
wiki<>23339
severus<>31989
wahyu<>10978
fabel<>21863
##isnya<>26279
blueto<>26078
##angk<>1754
land<>4450
##imal<>2952
hass<>12540
##ives<>25887
menumpuk<>29041
ign<>12828
##ayakan<>4745
perspektif<>13644
mensyaratkan<>27757
sumbang<>21151
reader<>31050
sekurang<>18901
inv<>3810
ω<>150
##gorod<>31505
application<>30329
gate<>21570
anarkis<>19030
##amatan<>2094
##ב<>1135
##anger<>10505
britain<>29382
tbk<>13624
auto<>14719
##ware<>9262
hack<>19486
##ifah<>28346
hidey<>16094
cm<>4584
vikaris<>22586
##mitt<>27585
sid<>5167
memperbaharui<>26251
ojek<>23531
agam<>15558
sumbernya<>25926
uang<>3714
merusak<>8657
ceramah<>17369
color<>10738
##odia<>14695
surgawi<>24717
##telasi<>27156
pengad<>27282
##xes<>28038
molotov<>31682
##yeksi<>13119
joo<>19805
universitas<>2485
￼<>1004
##sium<>9778
seismik<>30457
##guchi<>30951
variety<>23517
##rano<>28197
coh<>16557
yunani<>3199
selektif<>20666
karun<>21118
letjen<>24526
pencatatan<>24624
berlomba<>23381
dirintis<>16840
##opol<>17879
kopral<>29886
##aland<>17350
gambia<>31001
##istira<>19822
##ustakaan<>5644
##obo<>10901
bavaria<>20401
##alonika<>28421
bhikkh<>17393
##セ<>1275
ultravi<>24618
jason<>12864
ditul<>25750
dikenalkan<>29458
am<>1710
to<>2801
menjabat<>3127
##ebar<>3972
1917<>9660
tf<>25416
##donald<>17673
constance<>27825
##ni<>2053
lingk<>3002
alq<>21265
##ay<>1588
##rates<>23767
peny<>1904
ditata<>24174
ditugasi<>29785
istrinya<>5047
minangkabau<>7469
մ<>194
naruto<>11708
disintesis<>24213
jesse<>24653
##canya<>24138
kenya<>10934
kipas<>19082
debu<>13041
width<>25085
##info<>29973
pter<>9402
##presikan<>14098
moravia<>20571
##bos<>28081
keari<>26863
densitas<>26416
penyidik<>28819
bright<>28155
gry<>30852
buprest<>6050
pertamanya<>3391
elsa<>27856
tki<>29445
pond<>5961
b1<>26054
philadelphia<>15655
¾<>88
##ae<>1771
menginspirasi<>17011
pakan<>13921
deutsche<>21943
church<>10682
##okong<>18081
haber<>29584
##fal<>11559
mengungkap<>16492
##ikul<>24141
perusahaannya<>16740
rsud<>25823
##etabek<>23373
ி<>332
##8<>1023
memerik<>12130
memesan<>18132
##anjut<>2398
##etta<>11844
lel<>4185
##utani<>23667
shimin<>26204
taruhan<>28305
##gle<>21479
dens<>20191
##ी<>1341
##west<>18841
rantai<>8619
##inggal<>2282
amal<>9245
membelinya<>29795
า<>368
keseb<>15385
dikor<>25807
##boa<>26445
polo<>20004
kenegaraan<>17091
danau<>4421
##embatani<>28188
##inisi<>4755
amitabh<>27628
urusan<>5863
##idat<>8125
labuhan<>18147
environment<>22335
saturnus<>18372
自<>897
mos<>5425
antusias<>17379
geodia<>23760
saj<>17949
shuttle<>28161
swa<>17744
##indung<>6003
##ohidrat<>17644
kbs2<>29161
kontes<>4730
halaman<>5224
aqu<>12103
javan<>27092
dial<>4339
mekkah<>12080
portofolio<>25483
##uis<>26095
mendek<>6238
##rick<>13359
grumbul<>31642
レ<>590
##ongsong<>25183
pertentangan<>17831
churchill<>18207
台<>668
microsoft<>7491
where<>21642
melindunginya<>27409
##amai<>3773
datangnya<>16477
廣<>756
##other<>20995
nasser<>30828
kedatangan<>6827
jes<>9128
##ambakan<>31463
cyc<>14889
189<>3887
##rus<>4965
##ambangan<>16520
pertandingan<>3025
adele<>24240
osm<>26965
kandung<>8848
pembunuhan<>5823
dipertimbangkan<>16034
##land<>2551
##elaskan<>8056
ground<>17524
tembaga<>10042
pencarian<>7294
pemusik<>17200
eksis<>15697
bandara<>4614
berkeli<>27251
##amerika<>28781
##tih<>30026
lakers<>27523
pusing<>27855
observ<>12123
austral<>24643
dikibarkan<>31315
##alif<>3577
taks<>15672
pacu<>11164
##acher<>15047
sekar<>19020
green<>6906
jumat<>9002
##oboth<>9388
##edes<>11955
##upp<>21895
muj<>13415
sark<>23511
histori<>24531
pomp<>11099
##ains<>16265
gamma<>19253
##icara<>4416
perpustakaan<>5719
alan<>11193
republikan<>24229
meninggalkannya<>19392
法<>839
kruyt<>26787
kali<>1859
##kt48<>10332
lad<>16611
aleksandria<>14623
##lad<>5943
beethoven<>29060
##wijaya<>8266
##angkatan<>8458
gat<>8715
there<>18795
monica<>19621
keshogunan<>16118
##tuju<>6581
tin<>7674
membantu<>3307
365<>21465
##omendasi<>12827
##oskop<>21337
cache<>31923
##biotik<>15370
kw<>7922
kamb<>5891
rektor<>8288
bernilai<>10826
tunduk<>12125
市<>747
##ulf<>12420
##trukturisasi<>20549
salis<>25874
##alogi<>19338
##osp<>3868
koninkli<>25308
miskin<>7476
tamb<>8294
bani<>8927
dosa<>7719
sukadana<>30862
penjaga<>6944
##inal<>2671
sayuran<>9606
michel<>15765
##idis<>18566
sidney<>23675
stamford<>27230
##ulatum<>31831
senecio<>6471
batuan<>8103
moyangnya<>30517
menangani<>7348
##utuhan<>28246
asian<>9532
1600<>17435
fleet<>28846
tunj<>21217
mengisyaratkan<>25600
abstr<>14617
13<>2420
lemari<>20543
68<>7785
##ლ<>1321
##ikh<>7229
equ<>16575
problem<>21672
kelel<>16901
##ohan<>4885
kongres<>5562
##umur<>4496
batu<>2676
mendominasi<>9975
##insky<>26522
shinji<>30729
vy<>26314
wulan<>23367
marco<>17284
paleografi<>29221
pinggir<>10460
##ility<>25657
##etapan<>9408
index<>17140
baptiste<>31160
##ancar<>8328
2021<>16564
wib<>7427
berikan<>18899
bak<>3685
origenes<>23744
##art<>3019
49<>6599
berseru<>30032
masjid<>3433
terkait<>4144
caw<>31514
pass<>13479
siau<>24933
kapak<>19902
dji<>28376
jend<>6844
流<>843
hitungan<>20221
praw<>22461
apos<>1860
##arak<>5778
##fo<>9058
mahak<>18105
##elajah<>6744
##ider<>5810
pilatus<>28675
satir<>23509
kin<>8215
ale<>9329
##ylie<>30374
##etulan<>11916
keuskupan<>4291
kakan<>20257
defisit<>26217
kekayaan<>7471
tvri<>13191
mujah<>23420
##odotus<>29665
##pin<>10037
strange<>28826
dibesarkan<>8031
bursa<>9117
yudh<>14094
270<>19239
##olo<>2093
menum<>13324
tamu<>5918
harrison<>17808
dipanen<>23714
proyektor<>28250
দ<>306
berpot<>12595
nasabah<>24926
panjaitan<>29671
kejang<>18026
memphis<>25234
miniseri<>27320
##opsi<>5084
##epon<>5754
dang<>7875
##rahan<>23047
nagarak<>29778
kepercaya<>28472
wis<>3320
lucius<>24992
beragama<>7258
##seon<>27375
organization<>17016
1862<>17999
change<>23449
##angkalan<>19231
tuba<>23384
berperilaku<>21357
bash<>22900
##oka<>7251
irig<>11313
##asana<>7926
albrecht<>21956
menjatuhkan<>11466
diperkirakan<>4700
amr<>20029
1857<>17854
qan<>31520
iparnya<>21777
##ropis<>30349
memadamkan<>20943
makna<>6680
phyt<>13215
ando<>30276
##port<>8980
lemon<>24816
atapnya<>25792
antiokhos<>27666
batin<>14133
selanjutnya<>3475
weap<>27307
habitatnya<>9416
hamster<>28304
nai<>14873
cerdas<>10104
##hua<>16262
penyusun<>17433
namanya<>3843
dll<>6458
peliharaan<>15656
##ubo<>29813
aku<>4384
berlangsung<>3597
##luk<>4954
に<>525
##ukuli<>22634
bless<>26038
birokrasi<>15468
menjelaskan<>4744
nikotin<>30433
cepu<>20172
colorado<>17135
dilukis<>23829
##ungkap<>8785
ciptaannya<>23358
buritan<>29579
juri<>7780
##idion<>15432
神<>873
diiringi<>11982
dasawarsa<>11128
hukuman<>5988
menentang<>6102
##asar<>2483
volks<>13192
nepal<>10937
ekor<>5850
baj<>10175
lc<>15329
ferguson<>24897
bangk<>5166
menek<>15801
bagian<>1670
##elar<>4773
wea<>31297
gadang<>14630
majalengka<>18286
##enistik<>19764
maskapai<>5114
narapidana<>25062
arach<>29506
emisi<>11444
tingkat<>2855
nubuat<>17856
naw<>19345
##itaran<>21006
##usumah<>27040
##ternus<>18708
##encer<>17557
##onan<>6342
kemandirian<>23523
kesempatan<>5010
##dut<>10367
##aha<>3187
##ск<>22263
jabar<>25151
dikembangkan<>4249
##vas<>14438
menyangg<>31948
##umumkan<>3420
geg<>22683
menyaksikan<>9261
jorong<>16990
##ан<>21675
diberangkatkan<>27050
rescue<>30140
pes<>1989
ideologis<>28473
##but<>1610
##isal<>12512
kuros<>30415
dus<>17860
atm<>17309
##yuki<>26020
maraknya<>30100
bub<>9817
kriptografi<>28739
##ussia<>19672
cena<>29109
##bud<>6511
##tice<>14687
without<>23713
##odera<>10359
dipastikan<>13092
budaya<>3017
seukuran<>25567
macdonald<>29142
third<>23636
bumbu<>10314
calon<>4695
##sunya<>28697
##ike<>7436
##apati<>14489
##emos<>29344
terakreditasi<>17565
##undukkan<>18221
hanja<>23907
##uhrer<>26827
##sta<>30549
##asty<>26658
ven<>4951
rusuk<>30797
menyeb<>6648
ara<>12872
bahari<>16736
milan<>7885
pengrajin<>15779
1794<>27971
memakainya<>31699
##alangi<>11045
##mon<>8201
magn<>8640
hampa<>24887
rebus<>26271
penyuluhan<>25720
行<>910
bakau<>19158
##agan<>7089
urin<>21296
##لي<>27545
ム<>580
lask<>30081
##ologies<>27739
##ungsi<>2901
mam<>6285
serentak<>14715
ritel<>18208
pemotr<>28496
steven<>13923
chrom<>17128
ธ<>353
diw<>7298
##alahan<>4027
bulbophyllum<>5617
sendiri<>1998
luis<>15473
sasan<>29970
anglikan<>14010
##ouch<>13593
stol<>25540
neil<>18689
##sikan<>31601
##phy<>15711
daily<>14640
機<>824
##pora<>15429
##ud<>1575
revol<>16355
dend<>4662
hidangan<>7827
aper<>28605
##utasi<>8069
direbut<>12024
##inggu<>3280
##kan<>1507
ic<>8182
properti<>8472
mengenalnya<>30127
gatal<>25757
munisip<>5715
dirinya<>3232
retorika<>26417
##icon<>10136
rerata<>30006
525<>31354
##tunya<>10349
1896<>12944
##stadt<>20468
maus<>21340
##ᄇ<>1485
##tri<>3050
gross<>26543
seorang<>1783
hwa<>21837
slip<>27745
cemerlang<>19773
始<>707
##osiasi<>4915
menanti<>25656
banking<>29469
pahatan<>20327
menginduksi<>28157
##oeng<>22708
landas<>12491
129<>10842
mangrove<>21559
konfus<>20714
geiger<>28137
ʾ<>120
##esch<>18864
bollywood<>12197
nyaman<>10853
##emy<>13633
##ар<>25876
ل<>254
singa<>9985
lama<>2681
mili<>4848
1985<>5461
龙<>979
sesi<>8669
disusul<>10140
internationale<>30721
kepend<>12398
padam<>27259
menyerang<>4150
pref<>5859
jawab<>4136
meledakkan<>23127
manusia<>2523
##edit<>7950
perc<>3231
エ<>553
vod<>30467
rafael<>19319
berisi<>3709
rint<>11860
fang<>16999
peranakan<>21880
dikagumi<>30560
##ication<>13302
grant<>15948
##eur<>20665
seleukia<>24593
##empat<>3074
##b<>1013
bry<>15342
fer<>4894
フ<>575
terfokus<>25185
mycetophilidae<>6841
1946<>6665
kelola<>22400
##itanya<>10414
surya<>6965
misal<>17222
ridge<>27064
disfungsi<>31864
##24<>16975
memaksanya<>20704
##angkan<>1976
timbulnya<>18696
wilhelmina<>28970
menyajikan<>9939
##andaran<>23557
insurance<>28569
##anannya<>27990
tank<>5821
pengaruhnya<>14776
pengisian<>16190
’<>454
##luan<>8442
##far<>14520
fron<>21126
padjadjaran<>27034
য<>311
letnan<>7536
and<>2209
ツ<>568
yulius<>31089
marino<>20412
jong<>9403
##ل<>1068
kind<>19616
wam<>25833
##ents<>11663
perancangan<>16586
hindus<>26409
ד<>205
catur<>11624
sendirian<>12669
tarakan<>17695
yoon<>17093
kepanikan<>28686
cancer<>29046
寧<>728
##katan<>29740
dkp<>12157
sweet<>17206
sesosok<>31145
kerta<>16831
mengak<>3210
##jo<>3414
momen<>13469
##isme<>2574
rasul<>6213
##adis<>22372
50<>3617
temui<>22639
selo<>25227
##ses<>2108
penculikan<>18124
##hur<>15319
atlantic<>19711
##fel<>26315
chamberlin<>27318
merta<>28176
granada<>18822
masing<>2460
menjalin<>8462
##idium<>12089
##tikel<>4269
1825<>20330
akronim<>19489
yamin<>31381
dz<>13699
dipimpin<>3650
nefer<>24320
##ikel<>24975
sinta<>29762
williams<>9072
pemand<>6430
pacarnya<>15951
samuel<>9525
com<>3036
petak<>17191
alpa<>29075
kepingan<>25466
vegeta<>28730
ibrani<>5360
nusantara<>6392
koda<>29444
sandera<>18849
pendarat<>23138
162<>11127
##erak<>28859
pengungkapan<>30389
albatros<>26499
sos<>13854
lori<>27275
haruslah<>17906
yasa<>28491
##awk<>22076
sch<>3016
saham<>5219
reg<>3915
##11<>6142
tersier<>26536
##з<>1209
##etto<>15975
tuberkulosis<>24929
kebetulan<>12030
##islav<>24025
##chain<>26398
fasci<>28207
lat<>2866
##letti<>24387
##ol<>1547
##ilium<>27645
quarter<>27711
korban<>4510
kambing<>8899
##ulator<>16869
tanda<>4183
mengukuhkan<>22689
membengk<>27380
knesset<>25020
kunc<>17924
menun<>21480
grob<>20076
comb<>14128
lloyd<>17359
##engkapan<>9519
##takan<>3278
##ories<>19510
ketentara<>30484
akting<>8196
##oen<>26594
##inah<>8649
##od<>1636
persid<>15685
tus<>19147
king<>2013
##add<>31112
##arifikasi<>27126
catherine<>14313
##ylan<>21034
kerucut<>15811
##heimer<>21589
berw<>7788
anonim<>19561
button<>22088
##za<>3051
yasmin<>29790
魂<>974
rempah<>8588
kirgizstan<>25411
adanya<>3341
sagi<>31847
gamelan<>13258
cz<>23720
penggemar<>6918
kenal<>12424
780<>31773
##rana<>17551
द<>282
seo<>16685
doo<>27189
beit<>31473
##pir<>4471
indones<>1764
rig<>18052
##ekerja<>2540
mgr<>10993
##у<>1086
english<>13793
##filman<>9414
1802<>26262
85<>7313
bukit<>4475
emilia<>28513
infrastruktur<>8731
vander<>30019
baka<>24754
asri<>15670
##les<>3531
qin<>11953
kebay<>22835
spi<>29692
wolf<>9856
walker<>17758
##tir<>8184
guadalkan<>17248
##olla<>19885
iata<>25649
raka<>26637
mitsub<>16019
##atkan<>2271
persembunyian<>23966
##ujo<>28945
##rika<>27938
observatory<>31765
basil<>9754
##ors<>8552
bergulir<>26747
sip<>3908
fans<>11660
##omun<>6208
gani<>29623
54<>7255
mahmud<>14301
dikeluarkannya<>21323
pek<>6833
diusulkan<>10256
tinju<>16004
##uin<>24404
tup<>19847
afro<>24056
##atar<>5737
oto<>22450
yg<>7889
palu<>11622
##nar<>21520
dikaruniai<>10223
[UNK]<>0
keinginannya<>14753
##ikatan<>19734
akurasi<>19779
##rib<>7332
wonos<>16678
selebihnya<>21080
tanzania<>17969
御<>764
sah<>3256
merep<>14952
wu<>7844
ish<>10117
genangan<>31949
mengoptimalkan<>26683
baudouin<>18928
cinta<>4045
##onimus<>21909
##epung<>9680
memberitah<>12967
天<>701
##ontr<>5454
swasembada<>30265
tajik<>18204
##tival<>3831
##eksasi<>14379
panen<>9570
jusuf<>17358
pensiunan<>19258
pop<>2494
fakta<>7439
samurai<>14239
##alen<>16621
lutut<>18051
ekstensi<>21152
orb<>29746
##elyn<>23430
sakai<>31379
dibandingkan<>4293
irak<>6435
korean<>19819
nigel<>29893
gadis<>5022
lucky<>20865
desain<>4289
js<>31031
kabisat<>23705
sev<>12263
hof<>22394
trenggalek<>26668
##iak<>15331
##eksinya<>21686
##urr<>26096
signal<>26116
##aser<>12655
tabut<>27915
berpura<>17087
gejolak<>25682
eva<>14563
yas<>9728
paradigma<>22446
##aten<>9798
solidaritas<>17956
barbad<>27378
##ering<>7790
flor<>5822
multif<>29583
nou<>25128
batista<>28711
jenisnya<>19078
##tut<>29495
diberitakan<>23774
abe<>22753
##mose<>27477
hilang<>4902
purnama<>15688
spektrum<>11961
berkisar<>7900
fern<>9195
die<>13609
##pesies<>13579
ktp<>23686
menjamin<>11167
alis<>20444
bela<>8632
dulunya<>7809
pemberontak<>7577
room<>18353
matrik<>14412
wolverine<>30817
代<>620
corpor<>7077
aspergillus<>19043
utrecht<>19843
meta<>6912
kandas<>26705
feld<>27834
lump<>7303
##ig<>1993
tomas<>17562
kuat<>3572
paz<>30857
##unyai<>2637
decepticons<>18191
doni<>31168
ornamen<>14925
kob<>9648
##asah<>18678
meletusnya<>20942
suff<>16892
##fen<>20874
uttar<>22941
##instein<>13941
synth<>22417
##ipulasi<>13905
koleksinya<>27506
##urnian<>13934
ekskavasi<>27604
korps<>8763
cro<>9175
staf<>5498
mph<>23582
van<>3936
keterkaitan<>19968
##otok<>28706
草<>904
disuruh<>18959
##ocus<>21294
ekuador<>16141
cros<>23936
##raktikkan<>14502
doel<>26372
terlindung<>29820
xxx<>30812
楊<>818
anatolia<>15247
kekuasaannya<>9616
##ney<>4074
mekong<>24494
biksu<>14903
##ho<>2806
##ishi<>9973
##amanan<>3962
membina<>14918
##ne<>2392
139<>12390
insang<>27387
karate<>19247
##imura<>28390
intr<>11171
menebus<>25988
##ajukan<>11693
ejaan<>12146
hen<>4224
elektrode<>19281
taliban<>24958
unic<>13748
oxyop<>15079
ech<>20281
dil<>1851
##endam<>12207
conan<>19577
##ingga<>1774
persiapan<>7670
今<>618
##ハ<>1238
diselamatkan<>12137
brahmana<>19153
mengepalai<>21434
wilayah<>1910
medan<>4462
##ques<>10325
tertunda<>18771
lower<>23748
[...]
